{"merges": [["s", "</w>"], ["i", "n"], ["e", "</w>"], ["d", "</w>"], ["e", "r"], ["o", "n"], ["e", "d</w>"], ["e", "n"], ["t", "</w>"], ["a", "r"], ["a", "n"], ["r", "e"], ["y", "</w>"], ["t", "i"], ["a", "l"], ["in", "g"], ["o", "r"], ["ing", "</w>"], ["s", "t"], ["e", "s</w>"], ["a", "t"], ["on", "</w>"], ["er", "</w>"], ["r", "o"], ["i", "c"], ["e", "l"], ["s", "i"], ["c", "h"], ["u", "r"], ["c", "o"], ["al", "</w>"], ["t", "h"], ["r", "i"], ["r", "a"], ["u", "n"], ["ti", "on</w>"], ["i", "s"], ["d", "e"], ["i", "l"], ["a", "c"], ["a", "</w>"], ["t", "s</w>"], ["l", "o"], ["l", "e"], ["a", "s"], ["c", "on"], ["a", "m"], ["l", "y</w>"], ["an", "</w>"], ["d", "i"], ["e", "m"], ["e", "s"], ["o", "l"], ["i", "t"], ["e", "c"], ["en", "t</w>"], ["a", "d"], ["s", "h"], ["u", "l"], ["co", "m"], ["p", "ro"], ["a", "g"], ["k", "</w>"], ["e", "x"], ["er", "s</w>"], ["v", "i"], ["a", "p"], ["t", "ed</w>"], ["l", "i"], ["p", "o"], ["u", "s"], ["v", "e</w>"], ["a", "tion</w>"], ["l", "</w>"], ["en", "</w>"], ["l", "e</w>"], ["m", "</w>"], ["re", "s"], ["c", "e</w>"], ["in", "</w>"], ["l", "a"], ["g", "h"], ["i", "r"], ["s", "e"], ["s", "u"], ["n", "</w>"], ["t", "er"], ["o", "</w>"], ["on", "s</w>"], ["s", "p"], ["v", "er"], ["m", "o"], ["p", "er"], ["o", "w"], ["a", "b"], ["f", "f"], ["o", "u"], ["q", "u"], ["en", "t"], ["or", "</w>"], ["i", "m"], ["d", "s</w>"], ["o", "m"], ["ar", "</w>"], ["d", "u"], ["p", "ar"], ["r", "an"], ["p", "</w>"], ["at", "ed</w>"], ["b", "e"], ["n", "e"], ["t", "a"], ["f", "or"], ["l", "an"], ["m", "e"], ["th", "</w>"], ["w", "</w>"], ["a", "ti"], ["h", "o"], ["h", "</w>"], ["m", "a"], ["e", "a"], ["ic", "</w>"], ["r", "u"], ["ti", "c"], ["com", "m"], ["o", "c"], ["t", "ur"], ["m", "ar"], ["at", "e</w>"], ["at", "t"], ["d", "ed</w>"], ["e", "st"], ["r", "ic"], ["s", "e</w>"], ["si", "on</w>"], ["u", "m"], ["ch", "</w>"], ["d", "ing</w>"], ["e", "v"], ["en", "ts</w>"], ["es", "t</w>"], ["i", "</w>"], ["p", "or"], ["p", "re"], ["b", "o"], ["d", "er"], ["el", "</w>"], ["f", "e"], ["g", "</w>"], ["in", "e</w>"], ["s", "c"], ["t", "ra"], ["c", "l"], ["d", "e</w>"], ["e", "ar"], ["g", "ra"], ["h", "i"], ["p", "l"], ["t", "ing</w>"], ["a", "u"], ["a", "y</w>"], ["al", "ly</w>"], ["b", "u"], ["c", "ar"], ["f", "i"], ["o", "ur"], ["re", "c"], ["e", "t</w>"], ["g", "u"], ["it", "y</w>"], ["o", "p"], ["p", "res"], ["t", "er</w>"], ["a", "v"], ["m", "in"], ["t", "e</w>"], ["ag", "e</w>"], ["en", "ce</w>"], ["f", "</w>"], ["g", "i"], ["gh", "t</w>"], ["i", "es</w>"], ["k", "ing</w>"], ["k", "s</w>"], ["p", "u"], ["t", "y</w>"], ["co", "l"], ["g", "e</w>"], ["m", "an"], ["n", "o"], ["o", "ff"], ["sh", "i"], ["t", "e"], ["v", "ed</w>"], ["w", "ar"], ["ar", "y</w>"], ["at", "h"], ["com", "p"], ["d", "er</w>"], ["el", "y</w>"], ["g", "n"], ["k", "e"], ["m", "i"], ["s", "ur"], ["st", "an"], ["t", "u"], ["w", "e"], ["b", "l"], ["c", "es</w>"], ["c", "i"], ["c", "re"], ["con", "t"], ["d", "is"], ["g", "o"], ["il", "l"], ["s", "er"], ["s", "t</w>"], ["t", "en"], ["w", "h"], ["w", "or"], ["a", "s</w>"], ["a", "t</w>"], ["al", "l"], ["am", "</w>"], ["as", "s"], ["ch", "ar"], ["du", "c"], ["in", "ter"], ["k", "ed</w>"], ["m", "ent</w>"], ["on", "e</w>"], ["p", "h"], ["re", "s</w>"], ["ti", "ons</w>"], ["a", "ir"], ["al", "l</w>"], ["b", "ri"], ["c", "a"], ["ic", "al</w>"], ["j", "o"], ["k", "e</w>"], ["p", "la"], ["r", "y</w>"], ["s", "on</w>"], ["st", "or"], ["ti", "es</w>"], ["a", "d</w>"], ["al", "i"], ["b", "el"], ["c", "</w>"], ["en", "g"], ["f", "in"], ["ing", "s</w>"], ["o", "o"], ["o", "un"], ["p", "ri"], ["s", "ed</w>"], ["t", "or"], ["u", "s</w>"], ["w", "i"], ["a", "i"], ["al", "s</w>"], ["ati", "ons</w>"], ["b", "i"], ["d", "o"], ["en", "ti"], ["es", "s"], ["in", "s</w>"], ["is", "h"], ["p", "i"], ["si", "gn"], ["st", "r"], ["ur", "e</w>"], ["ab", "le</w>"], ["ap", "p"], ["ar", "d</w>"], ["c", "an"], ["e", "d"], ["e", "i"], ["e", "w"], ["em", "ent</w>"], ["f", "l"], ["for", "m"], ["g", "ro"], ["il", "</w>"], ["in", "ed</w>"], ["lo", "w"], ["m", "on"], ["n", "i"], ["n", "ing</w>"], ["on", "al</w>"], ["ti", "ve</w>"], ["a", "ch"], ["b", "</w>"], ["c", "lo"], ["c", "or"], ["el", "l"], ["g", "en"], ["g", "re"], ["i", "al</w>"], ["p", "s</w>"], ["st", "ru"], ["t", "ri"], ["un", "i"], ["x", "</w>"], ["y", "s</w>"], ["an", "ce</w>"], ["an", "g"], ["an", "s</w>"], ["an", "t</w>"], ["as", "t</w>"], ["b", "er"], ["c", "ap"], ["c", "er"], ["cl", "u"], ["d", "ra"], ["el", "l</w>"], ["f", "ac"], ["i", "st"], ["ic", "e</w>"], ["l", "es</w>"], ["m", "an</w>"], ["m", "e</w>"], ["m", "is"], ["n", "ed</w>"], ["n", "er</w>"], ["n", "or"], ["o", "b"], ["r", "e</w>"], ["s", "a"], ["s", "ec"], ["s", "ti"], ["shi", "p</w>"], ["tic", "</w>"], ["tur", "e</w>"], ["v", "er</w>"], ["v", "es</w>"], ["an", "d</w>"], ["ar", "ch"], ["b", "le</w>"], ["b", "ro"], ["co", "un"], ["con", "si"], ["d", "a"], ["de", "f"], ["de", "p"], ["e", "g"], ["e", "p"], ["e", "t"], ["ec", "t</w>"], ["f", "t</w>"], ["g", "ar"], ["h", "er"], ["i", "z"], ["is", "h</w>"], ["lan", "d</w>"], ["lo", "c"], ["m", "at"], ["m", "s</w>"], ["o", "per"], ["on", "g"], ["or", "e</w>"], ["p", "ol"], ["p", "p"], ["r", "ed</w>"], ["s", "s</w>"], ["sh", "</w>"], ["si", "m"], ["t", "ran"], ["t", "re"], ["t", "t"], ["th", "e"], ["u", "e</w>"], ["u", "m</w>"], ["v", "el"], ["ar", "g"], ["b", "as"], ["b", "er</w>"], ["b", "ra"], ["c", "c"], ["c", "ent"], ["c", "ri"], ["c", "ro"], ["ch", "ri"], ["ec", "ted</w>"], ["en", "ces</w>"], ["en", "d</w>"], ["es", "s</w>"], ["f", "ul"], ["gh", "</w>"], ["i", "a</w>"], ["i", "an</w>"], ["in", "es</w>"], ["is", "t</w>"], ["le", "g"], ["lo", "w</w>"], ["m", "us"], ["n", "am"], ["n", "s</w>"], ["ol", "</w>"], ["ou", "s</w>"], ["ow", "</w>"], ["pl", "ac"], ["pu", "bl"], ["r", "on"], ["s", "ch"], ["s", "el"], ["s", "es</w>"], ["s", "ing</w>"], ["sp", "ec"], ["st", "e"], ["st", "er</w>"], ["st", "s</w>"], ["stru", "c"], ["su", "b"], ["t", "ow"], ["t", "ro"], ["th", "er"], ["th", "er</w>"], ["ur", "</w>"], ["v", "ing</w>"], ["v", "o"], ["w", "ay</w>"], ["w", "ri"], ["y", "ed</w>"], ["ad", "v"], ["al", "e</w>"], ["an", "d"], ["an", "n"], ["ap", "pro"], ["at", "es</w>"], ["at", "ing</w>"], ["ati", "ve</w>"], ["b", "ar"], ["b", "att"], ["b", "s</w>"], ["b", "ur"], ["c", "am"], ["c", "le"], ["c", "u"], ["di", "st"], ["e", "ff"], ["em", "</w>"], ["em", "p"], ["f", "er"], ["f", "ic"], ["f", "re"], ["f", "un"], ["g", "g"], ["h", "el"], ["i", "g"], ["i", "t</w>"], ["il", "l</w>"], ["l", "ed</w>"], ["lo", "g"], ["lo", "o"], ["ma", "in"], ["p", "e"], ["p", "lan"], ["po", "si"], ["pro", "duc"], ["pro", "t"], ["res", "p"], ["s", "o"], ["s", "ol"], ["s", "om"], ["s", "y"], ["sc", "ri"], ["si", "ve</w>"], ["st", "ar"], ["st", "ed</w>"], ["st", "u"], ["su", "cc"], ["t", "o"], ["t", "our"], ["t", "w"], ["v", "ic"], ["v", "ol"], ["vi", "ew"], ["vi", "si"], ["w", "at"], ["y", "ing</w>"], ["y", "p"], ["a", "f"], ["ac", "c"], ["ar", "m"], ["as", "e</w>"], ["b", "or"], ["b", "re"], ["c", "ed</w>"], ["c", "ra"], ["c", "ul"], ["co", "ver"], ["d", "en</w>"], ["d", "ent</w>"], ["d", "es</w>"], ["d", "ic"], ["d", "ow"], ["di", "ff"], ["di", "rec"], ["ent", "ly</w>"], ["er", "ed</w>"], ["h", "a"], ["h", "ar"], ["h", "e"], ["hi", "gh"], ["i", "d</w>"], ["i", "e"], ["is", "e</w>"], ["is", "ed</w>"], ["m", "ents</w>"], ["om", "in"], ["on", "g</w>"], ["or", "g"], ["p", "it"], ["p", "r"], ["po", "s"], ["r", "ing</w>"], ["re", "g"], ["re", "pres"], ["s", "k"], ["st", "a"], ["t", "em"], ["t", "es</w>"], ["t", "ly</w>"], ["t", "or</w>"], ["ta", "in</w>"], ["u", "</w>"], ["u", "al</w>"], ["un", "der"], ["v", "al"], ["v", "al</w>"], ["v", "en"], ["w", "il"], ["w", "in"], ["a", "in</w>"], ["a", "war"], ["ac", "k</w>"], ["ag", "es</w>"], ["air", "</w>"], ["app", "ear"], ["as", "si"], ["at", "s</w>"], ["b", "ir"], ["c", "ur"], ["comp", "le"], ["con", "cer"], ["cont", "in"], ["d", "ay</w>"], ["d", "el"], ["d", "en"], ["d", "oc"], ["d", "y</w>"], ["de", "c"], ["de", "st"], ["def", "en"], ["e", "o"], ["ec", "tion</w>"], ["em", "ents</w>"], ["ex", "per"], ["f", "a"], ["f", "ir"], ["f", "o"], ["f", "ol"], ["f", "ran"], ["fi", "ed</w>"], ["ful", "</w>"], ["h", "ea"], ["h", "ol"], ["h", "un"], ["hi", "stor"], ["ho", "us"], ["ic", "i"], ["ic", "k</w>"], ["in", "i"], ["in", "t"], ["in", "ten"], ["it", "e</w>"], ["iz", "ed</w>"], ["j", "ur"], ["k", "o"], ["m", "ag"], ["m", "em"], ["m", "y</w>"], ["me", "di"], ["on", "ed</w>"], ["p", "en"], ["p", "le</w>"], ["p", "ul"], ["p", "ur"], ["por", "t"], ["r", "</w>"], ["r", "en"], ["ran", "g"], ["re", "la"], ["re", "qu"], ["ro", "u"], ["s", "ou"], ["se", "qu"], ["sp", "or"], ["st", "re"], ["st", "ri"], ["su", "p"], ["sur", "vi"], ["t", "a</w>"], ["th", "ing</w>"], ["ti", "m"], ["tic", "s</w>"], ["un", "d</w>"], ["v", "e"], ["w", "a"], ["w", "n</w>"], ["wi", "th"], ["z", "</w>"], ["a", "k"], ["a", "si"], ["ac", "k"], ["ag", "ed</w>"], ["al", "es</w>"], ["an", "im"], ["an", "ts</w>"], ["ar", "e</w>"], ["ar", "i"], ["ar", "ly</w>"], ["ar", "ti"], ["at", "ter"], ["at", "ur"], ["at", "ure</w>"], ["ati", "onal</w>"], ["au", "th"], ["b", "an"], ["b", "il"], ["b", "y</w>"], ["be", "g"], ["bu", "il"], ["c", "at"], ["c", "la"], ["ca", "us"], ["ch", "am"], ["char", "ac"], ["co", "ur"], ["con", "n"], ["cont", "ro"], ["d", "enti"], ["d", "ge</w>"], ["d", "re"], ["d", "ri"], ["de", "scri"], ["de", "sign"], ["di", "tion</w>"], ["e", "ts</w>"], ["e", "ver"], ["ec", "ts</w>"], ["en", "ed</w>"], ["en", "s</w>"], ["en", "ted</w>"], ["en", "ter"], ["er", "y</w>"], ["es", "e</w>"], ["es", "sion</w>"], ["est", "s</w>"], ["ex", "</w>"], ["f", "il"], ["g", "a"], ["g", "ran"], ["gen", "er"], ["h", "or"], ["i", "ev"], ["i", "s</w>"], ["ic", "s</w>"], ["il", "y</w>"], ["ill", "s</w>"], ["in", "clu"], ["in", "di"], ["in", "e"], ["in", "ing</w>"], ["ish", "ed</w>"], ["it", "ted</w>"], ["j", "u"], ["l", "ine</w>"], ["le", "ad"], ["li", "es</w>"], ["m", "ad"], ["m", "p"], ["min", "ist"], ["o", "d</w>"], ["on", "y</w>"], ["oo", "d</w>"], ["or", "ig"], ["or", "y</w>"], ["org", "an"], ["ou", "gh</w>"], ["our", "</w>"], ["p", "ass"], ["p", "ra"], ["per", "s"], ["po", "sed</w>"], ["pr", "in"], ["pre", "par"], ["r", "ul"], ["r", "un"], ["r", "us"], ["re", "ad"], ["re", "gi"], ["re", "por"], ["rec", "or"], ["res", "s</w>"], ["resp", "on"], ["ri", "bu"], ["s", "ing"], ["s", "or"], ["s", "po"], ["s", "un"], ["sc", "i"], ["sel", "f</w>"], ["ser", "v"], ["sh", "o"], ["sh", "ow"], ["si", "ons</w>"], ["st", "on</w>"], ["sti", "tu"], ["sur", "e</w>"], ["t", "ers</w>"], ["t", "on</w>"], ["t", "yp"], ["ta", "ined</w>"], ["te", "en</w>"], ["th", "re"], ["ti", "al</w>"], ["ti", "onal</w>"], ["ti", "v"], ["tran", "s"], ["u", "es</w>"], ["w", "s</w>"], ["war", "d</w>"], ["y", "er</w>"], ["a", "ch</w>"], ["a", "eo"], ["a", "k</w>"], ["a", "z"], ["ab", "l"], ["ac", "e</w>"], ["ac", "ked</w>"], ["ac", "t</w>"], ["ag", "re"], ["al", "d</w>"], ["al", "ity</w>"], ["all", "s</w>"], ["am", "e</w>"], ["am", "s</w>"], ["an", "ge</w>"], ["ap", "</w>"], ["ar", "ri"], ["arch", "aeo"], ["as", "s</w>"], ["at", "h</w>"], ["ath", "er</w>"], ["ath", "le"], ["att", "emp"], ["auth", "or"], ["av", "es</w>"], ["b", "all</w>"], ["b", "ar</w>"], ["b", "e</w>"], ["b", "ed</w>"], ["b", "om"], ["c", "ir"], ["c", "k</w>"], ["c", "ru"], ["ch", "ed</w>"], ["ch", "o"], ["cham", "pi"], ["chri", "sti"], ["co", "u"], ["col", "le"], ["col", "um"], ["comm", "an"], ["comm", "is"], ["comm", "un"], ["comp", "an"], ["comp", "e"], ["cri", "tic"], ["d", "ers</w>"], ["d", "omin"], ["d", "on</w>"], ["d", "ru"], ["d", "y"], ["de", "ci"], ["de", "m"], ["de", "vel"], ["dep", "en"], ["dep", "ic"], ["dest", "ro"], ["doc", "um"], ["e", "k</w>"], ["e", "qu"], ["e", "u"], ["el", "ec"], ["el", "s</w>"], ["ell", "s</w>"], ["em", "s</w>"], ["ent", "al</w>"], ["er", "e</w>"], ["er", "n</w>"], ["es", "ti"], ["est", "abl"], ["ex", "c"], ["ex", "ist"], ["ex", "pres"], ["f", "a</w>"], ["f", "all</w>"], ["f", "e</w>"], ["f", "le"], ["f", "oun"], ["fl", "u"], ["fol", "low"], ["for", "m</w>"], ["g", "e"], ["g", "er"], ["g", "n</w>"], ["g", "o</w>"], ["gh", "ts</w>"], ["gra", "m"], ["gra", "ph"], ["h", "am"], ["h", "ear"], ["h", "n"], ["h", "on"], ["he", "ad"], ["i", "fic"], ["i", "m</w>"], ["i", "ties</w>"], ["ic", "an</w>"], ["il", "ed</w>"], ["im", "pro"], ["in", "a</w>"], ["in", "ation</w>"], ["in", "cre"], ["in", "dic"], ["in", "du"], ["in", "flu"], ["in", "v"], ["ir", "e</w>"], ["ir", "ed</w>"], ["ish", "ing</w>"], ["it", "ed</w>"], ["j", "our"], ["k", "es</w>"], ["k", "n"], ["k", "y"], ["ke", "ts</w>"], ["l", "er</w>"], ["l", "in"], ["l", "l</w>"], ["le", "y</w>"], ["lo", "</w>"], ["m", "il"], ["me", "as"], ["me", "t"], ["mo", "un"], ["n", "um"], ["n", "y</w>"], ["ne", "y</w>"], ["o", "m</w>"], ["o", "us"], ["ob", "j"], ["off", "ic"], ["ol", "d</w>"], ["on", "es</w>"], ["op", "p"], ["ou", "t</w>"], ["p", "a"], ["p", "al"], ["p", "e</w>"], ["p", "ea"], ["par", "t"], ["par", "tic"], ["ph", "il"], ["pl", "at"], ["po", "in"], ["po", "pul"], ["po", "w"], ["pos", "si"], ["pp", "ed</w>"], ["pro", "mo"], ["pro", "vi"], ["re", "fer"], ["re", "plac"], ["re", "si"], ["re", "tur"], ["re", "view"], ["rec", "ei"], ["repres", "ent"], ["res", "ul"], ["ric", "k</w>"], ["ro", "man"], ["ro", "w</w>"], ["s", "en"], ["s", "ses</w>"], ["se", "tt"], ["shi", "ps</w>"], ["si", "de</w>"], ["som", "e"], ["st", "at"], ["stan", "ce</w>"], ["stu", "di"], ["su", "gg"], ["succ", "ess"], ["t", "an"], ["t", "ea"], ["t", "om"], ["t", "r"], ["t", "ting</w>"], ["te", "ch"], ["th", "em"], ["ti", "on"], ["tiv", "ely</w>"], ["tor", "s</w>"], ["tur", "al</w>"], ["u", "p"], ["u", "res</w>"], ["u", "tion</w>"], ["un", "ds</w>"], ["uni", "ver"], ["us", "ed</w>"], ["v", "</w>"], ["v", "en</w>"], ["v", "ill"], ["vi", "sion</w>"], ["vic", "tor"], ["w", "al"], ["w", "ing</w>"], ["a", "i</w>"], ["a", "st"], ["ab", "it"], ["ac", "king</w>"], ["ac", "tion</w>"], ["ac", "tions</w>"], ["acc", "ep"], ["ach", "es</w>"], ["ach", "ing</w>"], ["ad", "a</w>"], ["ad", "e</w>"], ["ad", "es</w>"], ["adv", "an"], ["af", "ric"], ["af", "ter"], ["ag", "</w>"], ["ai", "d</w>"], ["air", "s</w>"], ["al", "low"], ["al", "ter"], ["all", "ed</w>"], ["am", "er"], ["am", "oun"], ["an", "der"], ["ap", "e</w>"], ["ar", "ab"], ["ar", "ds</w>"], ["ar", "ed</w>"], ["ar", "gu"], ["ar", "k</w>"], ["ar", "rang"], ["ar", "s</w>"], ["ar", "t</w>"], ["arch", "it"], ["archaeo", "log"], ["as", "ed</w>"], ["as", "on</w>"], ["at", "er</w>"], ["au", "di"], ["au", "str"], ["austr", "ali"], ["b", "al"], ["b", "at</w>"], ["b", "c</w>"], ["b", "en"], ["b", "es</w>"], ["b", "is"], ["b", "le"], ["b", "loc"], ["b", "r"], ["b", "ran"], ["batt", "le"], ["be", "com"], ["bel", "ie"], ["bel", "iev"], ["ber", "t</w>"], ["bi", "o"], ["bi", "t</w>"], ["bis", "ho"], ["bra", "d"], ["c", "as"], ["c", "ath"], ["c", "el"], ["c", "ing</w>"], ["c", "ks</w>"], ["c", "le</w>"], ["c", "t</w>"], ["c", "ted</w>"], ["c", "tion</w>"], ["c", "us"], ["c", "y"], ["c", "y</w>"], ["ch", "ang"], ["ch", "ange</w>"], ["ch", "ap"], ["ch", "es</w>"], ["ch", "il"], ["ch", "ing</w>"], ["charac", "ter"], ["chri", "st"], ["ci", "al</w>"], ["ci", "v"], ["cl", "ass"], ["cla", "im"], ["cle", "ar</w>"], ["clo", "s"], ["co", "</w>"], ["co", "gn"], ["co", "t"], ["col", "on"], ["comm", "and"], ["commis", "si"], ["compe", "ti"], ["con", "struc"], ["con", "ver"], ["consi", "der"], ["consi", "st"], ["contin", "u"], ["cover", "ed</w>"], ["cra", "ft</w>"], ["cre", "di"], ["d", "a</w>"], ["d", "ence</w>"], ["d", "ings</w>"], ["d", "ly</w>"], ["d", "o</w>"], ["d", "ol"], ["d", "ou"], ["d", "ro"], ["de", "cl"], ["de", "si"], ["de", "ta"], ["devel", "op"], ["di", "d"], ["di", "v"], ["diff", "er"], ["diff", "ic"], ["diffic", "ul"], ["dis", "cus"], ["dis", "pla"], ["do", "m</w>"], ["dow", "n"], ["e", "an</w>"], ["e", "ar</w>"], ["e", "p</w>"], ["e", "th</w>"], ["e", "w</w>"], ["e", "y</w>"], ["ea", "k"], ["ea", "st"], ["east", "ern</w>"], ["ec", "tive</w>"], ["eg", "yp"], ["el", "d</w>"], ["el", "ev"], ["en", "ced</w>"], ["en", "ded</w>"], ["en", "ing</w>"], ["eng", "ine"], ["equ", "i"], ["er", "a</w>"], ["er", "ing</w>"], ["er", "ship</w>"], ["est", "ed</w>"], ["est", "ing</w>"], ["eu", "ro"], ["ev", "er</w>"], ["ex", "am"], ["ex", "ec"], ["ex", "p"], ["ex", "pla"], ["ex", "t</w>"], ["ex", "ten"], ["exper", "i"], ["f", "am"], ["f", "an"], ["f", "av"], ["f", "ic</w>"], ["f", "low"], ["f", "oc"], ["f", "oo"], ["f", "ra"], ["f", "ri"], ["f", "u"], ["f", "ur"], ["fe", "der"], ["fi", "f"], ["fi", "t</w>"], ["fo", "re"], ["form", "ed</w>"], ["g", "a</w>"], ["g", "am"], ["g", "es</w>"], ["g", "in</w>"], ["g", "l"], ["go", "ver"], ["gover", "n"], ["gro", "und</w>"], ["gu", "i"], ["h", "abit"], ["h", "ai"], ["h", "al"], ["h", "app"], ["h", "om"], ["h", "ow"], ["h", "u"], ["h", "um"], ["h", "y"], ["i", "de"], ["i", "denti"], ["i", "ed</w>"], ["i", "i</w>"], ["i", "or</w>"], ["i", "ri"], ["ic", "ation</w>"], ["ic", "ations</w>"], ["ic", "k"], ["ig", "n</w>"], ["il", "s</w>"], ["in", "jur"], ["in", "stitu"], ["in", "vol"], ["ini", "ti"], ["ir", "</w>"], ["is", "l"], ["is", "m</w>"], ["is", "su"], ["it", "al</w>"], ["j", "am"], ["j", "an"], ["j", "er"], ["jo", "hn"], ["jour", "n"], ["k", "an"], ["k", "en</w>"], ["ke", "y</w>"], ["kn", "ow"], ["l", "arg"], ["l", "ines</w>"], ["l", "ing</w>"], ["l", "it"], ["l", "y"], ["la", "w"], ["lan", "ds</w>"], ["lan", "gu"], ["le", "ar"], ["le", "s"], ["li", "ed</w>"], ["li", "ght</w>"], ["li", "m"], ["li", "on</w>"], ["lo", "u"], ["m", "ed</w>"], ["m", "itted</w>"], ["m", "or"], ["m", "ul"], ["m", "ur"], ["m", "y"], ["ma", "ch"], ["mi", "x"], ["mis", "sion</w>"], ["n", "a</w>"], ["n", "ar"], ["n", "av"], ["n", "ers</w>"], ["n", "es"], ["n", "est</w>"], ["n", "omin"], ["ne", "t"], ["ne", "w"], ["ni", "s</w>"], ["nor", "th"], ["o", "ds</w>"], ["oc", "ca"], ["oc", "cur"], ["off", "</w>"], ["ol", "e</w>"], ["on", "d</w>"], ["on", "t"], ["or", "s</w>"], ["orig", "in"], ["ou", "</w>"], ["ou", "ght</w>"], ["ou", "t"], ["p", "ag"], ["p", "h</w>"], ["p", "ic"], ["p", "ing</w>"], ["pers", "on"], ["pi", "ec"], ["pl", "es</w>"], ["por", "t</w>"], ["posi", "tion</w>"], ["pre", "mi"], ["qu", "ar"], ["r", "en</w>"], ["ra", "</w>"], ["ra", "tion</w>"], ["re", "ad</w>"], ["re", "cogn"], ["re", "duc"], ["re", "f"], ["re", "le"], ["re", "li"], ["re", "ma"], ["re", "mo"], ["re", "p"], ["re", "st"], ["re", "stor"], ["re", "ve"], ["re", "vi"], ["reg", "im"], ["res", "er"], ["res", "t</w>"], ["ri", "tor"], ["ribu", "ted</w>"], ["ric", "al</w>"], ["ro", "</w>"], ["ro", "ad</w>"], ["s", "as</w>"], ["s", "cot"], ["s", "em"], ["s", "m"], ["s", "oun"], ["s", "our"], ["s", "qu"], ["s", "w"], ["s", "we"], ["sc", "or"], ["sch", "ol"], ["scri", "p"], ["se", "con"], ["se", "t</w>"], ["se", "ver"], ["sh", "ed</w>"], ["sh", "or"], ["si", "s</w>"], ["si", "x"], ["sign", "ed</w>"], ["sign", "ific"], ["sim", "il"], ["sim", "p"], ["sp", "ac"], ["stan", "ding</w>"], ["str", "ong"], ["su", "ff"], ["su", "per"], ["t", "able</w>"], ["t", "al"], ["t", "ation</w>"], ["t", "el"], ["t", "ou"], ["t", "ru"], ["t", "ry</w>"], ["ter", "ritor"], ["th", "ers</w>"], ["th", "ir"], ["ti", "</w>"], ["ti", "t"], ["tra", "vel"], ["tran", "spor"], ["tu", "al</w>"], ["tu", "res</w>"], ["u", "ally</w>"], ["ul", "d</w>"], ["ul", "l</w>"], ["un", "</w>"], ["ur", "ed</w>"], ["us", "e</w>"], ["v", "ari"], ["v", "el</w>"], ["v", "ement</w>"], ["v", "ers</w>"], ["v", "in"], ["vi", "r"], ["w", "ai"], ["w", "as"], ["w", "est"], ["w", "est</w>"], ["wa", "ys</w>"], ["we", "e"], ["wh", "il"], ["with", "dra"], ["wor", "k</w>"], ["y", "oun"], ["z", "e</w>"], ["a", "er"], ["a", "ff"], ["a", "ke</w>"], ["a", "ve</w>"], ["ab", "il"], ["ab", "ly</w>"], ["ab", "o"], ["ac", "</w>"], ["ac", "a"], ["ac", "compan"], ["ac", "coun"], ["ac", "i"], ["ac", "ks</w>"], ["ac", "ti"], ["ach", "ed</w>"], ["ach", "iev"], ["ad", "ap"], ["ad", "di"], ["ad", "el"], ["ad", "minist"], ["ad", "o</w>"], ["ad", "ul"], ["ad", "way</w>"], ["adv", "ent"], ["ag", "ement</w>"], ["ag", "o</w>"], ["ag", "ric"], ["agric", "ul"], ["al", "i</w>"], ["al", "low</w>"], ["al", "t"], ["al", "th"], ["al", "th</w>"], ["all", "en</w>"], ["all", "ing</w>"], ["alter", "n"], ["am", "ent</w>"], ["am", "m"], ["amer", "ic"], ["amoun", "t</w>"], ["an", "a</w>"], ["an", "ded</w>"], ["an", "ds</w>"], ["an", "ia</w>"], ["an", "no"], ["an", "th"], ["an", "tly</w>"], ["an", "y"], ["an", "z"], ["ang", "el"], ["ang", "er</w>"], ["anno", "un"], ["ap", "er</w>"], ["ap", "par"], ["ap", "pl"], ["appear", "ed</w>"], ["ar", "ch</w>"], ["ar", "ies</w>"], ["ar", "m</w>"], ["ar", "tic"], ["archit", "ec"], ["arg", "ent"], ["as", "ons</w>"], ["as", "p"], ["as", "y</w>"], ["asi", "s</w>"], ["ass", "em"], ["ass", "oc"], ["assoc", "i"], ["at", "eg"], ["at", "ely</w>"], ["at", "lan"], ["at", "or</w>"], ["at", "ro"], ["at", "ures</w>"], ["ath", "an</w>"], ["att", "er</w>"], ["att", "le</w>"], ["atur", "al</w>"], ["au", "</w>"], ["au", "gh"], ["av", "ing</w>"], ["awar", "e</w>"], ["b", "ack</w>"], ["b", "and</w>"], ["b", "at"], ["b", "atter"], ["b", "ec"], ["b", "ers</w>"], ["b", "ing</w>"], ["b", "ly</w>"], ["b", "or</w>"], ["b", "ow"], ["b", "us"], ["batt", "ali"], ["be", "au"], ["be", "ha"], ["be", "t"], ["be", "y"], ["beha", "vi"], ["bel", "gi"], ["bel", "l</w>"], ["bil", "ity</w>"], ["bio", "graph"], ["bisho", "p</w>"], ["bo", "ard</w>"], ["bo", "o"], ["bo", "un"], ["bo", "ur</w>"], ["bo", "y</w>"], ["bor", "ough</w>"], ["boun", "d"], ["bre", "a"], ["bre", "ak</w>"], ["bri", "dge</w>"], ["bri", "e"], ["bri", "g"], ["bu", "s</w>"], ["bu", "t</w>"], ["buil", "t</w>"], ["bur", "n</w>"], ["bus", "in"], ["c", "an</w>"], ["c", "ast</w>"], ["c", "ent</w>"], ["c", "ess</w>"], ["c", "ric"], ["ca", "ke</w>"], ["ca", "st"], ["cam", "p"], ["can", "c"], ["can", "did"], ["cap", "e</w>"], ["cap", "tur"], ["car", "ri"], ["cat", "eg"], ["cath", "ol"], ["cent", "r"], ["cent", "ur"], ["ch", "all"], ["ch", "ase</w>"], ["ch", "dow"], ["ch", "en</w>"], ["ch", "er</w>"], ["ch", "ers</w>"], ["ch", "est"], ["ch", "ic"], ["ch", "ron"], ["ch", "ur"], ["champi", "on"], ["character", "is"], ["chil", "d"], ["chron", "ic"], ["ci", "dent</w>"], ["civ", "il"], ["cl", "assi"], ["co", "lo"], ["co", "p"], ["co", "us"], ["co", "ver</w>"], ["col", "l"], ["coll", "ap"], ["com", "b"], ["com", "e</w>"], ["com", "par"], ["com", "po"], ["comm", "er"], ["comm", "on"], ["commissi", "oned</w>"], ["comp", "on"], ["con", "c"], ["con", "clu"], ["con", "duc"], ["con", "fl"], ["con", "om"], ["con", "serv"], ["con", "stan"], ["con", "ta"], ["con", "tra"], ["confl", "ic"], ["conn", "ec"], ["construc", "tion</w>"], ["contro", "l"], ["contro", "ver"], ["cor", "por"], ["cover", "y</w>"], ["cro", "ati"], ["cro", "s"], ["cru", "is"], ["cur", "r"], ["d", "am"], ["d", "an"], ["d", "an</w>"], ["d", "ance</w>"], ["d", "at"], ["d", "ated</w>"], ["d", "augh"], ["d", "den"], ["d", "den</w>"], ["d", "el</w>"], ["d", "ents</w>"], ["d", "h"], ["d", "om"], ["d", "on"], ["d", "ress</w>"], ["d", "son</w>"], ["d", "ur"], ["da", "vi"], ["de", "dic"], ["de", "fe"], ["de", "fin"], ["de", "gre"], ["de", "man"], ["de", "par"], ["de", "sp"], ["de", "ter"], ["del", "i"], ["deli", "ver"], ["denti", "al</w>"], ["depen", "dent</w>"], ["der", "ed</w>"], ["di", "am"], ["di", "an</w>"], ["di", "er</w>"], ["di", "es</w>"], ["dist", "in"], ["dist", "ric"], ["do", "or</w>"], ["dol", "l"], ["dra", "m"], ["dre", "am</w>"], ["dre", "w</w>"], ["dru", "m</w>"], ["du", "ce</w>"], ["e", "conom"], ["e", "ded</w>"], ["e", "di"], ["e", "ding</w>"], ["e", "ds</w>"], ["e", "duc"], ["e", "er</w>"], ["e", "vi"], ["e", "y"], ["ea", "k</w>"], ["ea", "s</w>"], ["ea", "t</w>"], ["ear", "li"], ["ec", "tively</w>"], ["ed", "ul"], ["eff", "or"], ["egyp", "ti"], ["ei", "gh"], ["ei", "ght</w>"], ["el", "low</w>"], ["el", "se"], ["elec", "t"], ["ell", "ed</w>"], ["ell", "ing</w>"], ["em", "ber</w>"], ["em", "ed</w>"], ["em", "er"], ["em", "y</w>"], ["emp", "lo"], ["en", "ding</w>"], ["en", "ds</w>"], ["en", "ne"], ["en", "tion</w>"], ["en", "vi"], ["eng", "th</w>"], ["ent", "ary</w>"], ["ent", "er</w>"], ["enter", "ed</w>"], ["enti", "al</w>"], ["envi", "ron"], ["ep", "is"], ["ep", "t</w>"], ["ep", "tion</w>"], ["epis", "o"], ["er", "o"], ["er", "o</w>"], ["er", "ous</w>"], ["es", "p"], ["ess", "or</w>"], ["ev", "ent"], ["ever", "y"], ["ew", "s</w>"], ["ex", "clu"], ["ex", "pl"], ["ex", "t"], ["ex", "tre"], ["exc", "av"], ["exec", "u"], ["f", "ather</w>"], ["f", "em"], ["f", "loo"], ["f", "ly</w>"], ["f", "our"], ["fa", "il"], ["fac", "e</w>"], ["fac", "il"], ["fav", "or"], ["fe", "atur"], ["fe", "el"], ["fer", "red</w>"], ["fi", "eld</w>"], ["fin", "als</w>"], ["foo", "t"], ["for", "d</w>"], ["for", "e</w>"], ["for", "man"], ["for", "t</w>"], ["form", "ation</w>"], ["form", "ing</w>"], ["form", "s</w>"], ["fre", "qu"], ["ful", "ly</w>"], ["g", "ar</w>"], ["g", "ative</w>"], ["g", "ed</w>"], ["g", "er</w>"], ["g", "et</w>"], ["g", "ir"], ["g", "lo"], ["g", "ress</w>"], ["g", "ul"], ["ge", "or"], ["ger", "man"], ["go", "ing</w>"], ["gra", "du"], ["gra", "ph</w>"], ["gram", "m"], ["gre", "at"], ["gro", "u"], ["gu", "e</w>"], ["gu", "it"], ["h", "a</w>"], ["h", "an</w>"], ["h", "ann"], ["h", "ard</w>"], ["h", "er</w>"], ["h", "ic"], ["h", "l</w>"], ["h", "ur"], ["ha", "wai"], ["hal", "f</w>"], ["hea", "d</w>"], ["hea", "v"], ["her", "e</w>"], ["ho", "sp"], ["hol", "d</w>"], ["hous", "e</w>"], ["hur", "ric"], ["hurric", "an"], ["i", "ans</w>"], ["i", "b"], ["i", "ght</w>"], ["i", "ii</w>"], ["i", "p"], ["i", "re"], ["i", "th</w>"], ["i", "tion</w>"], ["ic", "ally</w>"], ["ie", "ty</w>"], ["il", "o"], ["ill", "ed</w>"], ["ill", "ing</w>"], ["im", "medi"], ["im", "mi"], ["im", "port"], ["im", "pres"], ["im", "um</w>"], ["in", "c</w>"], ["in", "d</w>"], ["in", "k</w>"], ["in", "king</w>"], ["in", "n"], ["in", "ner</w>"], ["in", "ning</w>"], ["in", "scrip"], ["in", "sp"], ["in", "st"], ["in", "t</w>"], ["in", "tro"], ["incre", "as"], ["indi", "vi"], ["indivi", "du"], ["indu", "stri"], ["ing", "ton</w>"], ["inten", "si"], ["inter", "n"], ["inter", "sec"], ["intro", "duc"], ["is", "ing</w>"], ["is", "on</w>"], ["is", "ra"], ["ish", "ment</w>"], ["it", "a</w>"], ["it", "ing</w>"], ["j", "ac"], ["j", "ack"], ["j", "ap"], ["j", "ect</w>"], ["j", "ects</w>"], ["j", "or"], ["j", "um"], ["j", "un"], ["j", "us"], ["k", "el"], ["k", "ely</w>"], ["k", "enne"], ["k", "er</w>"], ["k", "et</w>"], ["k", "i</w>"], ["k", "ic"], ["k", "il"], ["kan", "sas</w>"], ["ke", "t"], ["know", "n</w>"], ["ko", "re"], ["ko", "v"], ["kov", "ic</w>"], ["l", "ar"], ["l", "at"], ["l", "ated</w>"], ["l", "ation</w>"], ["l", "b</w>"], ["l", "in</w>"], ["l", "ong"], ["l", "or"], ["l", "s</w>"], ["la", "bor"], ["la", "d</w>"], ["la", "s</w>"], ["la", "un"], ["la", "yer</w>"], ["lan", "d"], ["le", "cul"], ["le", "e</w>"], ["le", "ss</w>"], ["le", "t</w>"], ["leg", "al</w>"], ["leg", "isl"], ["li", "e</w>"], ["li", "fe</w>"], ["li", "gh"], ["li", "ghts</w>"], ["li", "ke</w>"], ["li", "kely</w>"], ["lit", "er"], ["lo", "t</w>"], ["loc", "ated</w>"], ["log", "ical</w>"], ["log", "y</w>"], ["m", "ental</w>"], ["m", "er</w>"], ["m", "ex"], ["m", "ic"], ["m", "ine</w>"], ["m", "ore</w>"], ["m", "u"], ["ma", "y"], ["mag", "az"], ["mar", "i"], ["mar", "ine</w>"], ["mar", "ked</w>"], ["mar", "ri"], ["mar", "y</w>"], ["mat", "er"], ["me", "an"], ["me", "d"], ["me", "t</w>"], ["me", "th"], ["me", "tro"], ["mem", "or"], ["mi", "d</w>"], ["mi", "x</w>"], ["min", "u"], ["mis", "sed</w>"], ["mo", "der"], ["mo", "lecul"], ["mo", "st</w>"], ["mo", "vi"], ["mon", "um"], ["mus", "ic</w>"], ["n", "atural</w>"], ["n", "ec"], ["n", "ership</w>"], ["n", "o</w>"], ["n", "on</w>"], ["n", "ow</w>"], ["n", "u"], ["n", "ur"], ["nam", "ed</w>"], ["ne", "t</w>"], ["ne", "v"], ["ne", "w</w>"], ["new", "sp"], ["ni", "a</w>"], ["ni", "qu"], ["no", "t</w>"], ["nor", "m"], ["o", "dy</w>"], ["o", "f</w>"], ["o", "gue</w>"], ["o", "p</w>"], ["o", "s"], ["o", "s</w>"], ["o", "ther</w>"], ["o", "ver"], ["o", "ver</w>"], ["o", "x"], ["ob", "serv"], ["oc", "</w>"], ["oc", "cu"], ["off", "en"], ["off", "ici"], ["ol", "i"], ["ol", "s</w>"], ["ol", "y"], ["oly", "mp"], ["om", "an</w>"], ["ont", "o</w>"], ["oo", "k</w>"], ["op", "ini"], ["op", "port"], ["oper", "ation</w>"], ["opp", "ed</w>"], ["opp", "on"], ["org", "an</w>"], ["organ", "iz"], ["ous", "ly</w>"], ["p", "al</w>"], ["p", "atter"], ["p", "ed</w>"], ["p", "er</w>"], ["p", "ical</w>"], ["p", "ilo"], ["p", "un"], ["pa", "in"], ["pal", "est"], ["par", "li"], ["partic", "ip"], ["partic", "ul"], ["per", "forman"], ["per", "i"], ["ph", "y"], ["phy", "s"], ["piec", "e</w>"], ["pla", "y"], ["pla", "y</w>"], ["plac", "ed</w>"], ["po", "ol</w>"], ["po", "ten"], ["poin", "ted</w>"], ["pol", "i"], ["pol", "ic"], ["por", "ary</w>"], ["por", "tra"], ["por", "ts</w>"], ["posi", "tions</w>"], ["possi", "ble</w>"], ["pp", "ing</w>"], ["pra", "c"], ["pre", "gn"], ["pre", "si"], ["pre", "vi"], ["pres", "er"], ["pri", "se</w>"], ["pro", "ble"], ["pro", "f"], ["pro", "gra"], ["pro", "per"], ["pro", "te"], ["pro", "vin"], ["prot", "est"], ["pu", "s</w>"], ["publ", "ic</w>"], ["pur", "po"], ["pur", "su"], ["q", "</w>"], ["q", "ed"], ["qu", "ali"], ["qu", "e"], ["qu", "es"], ["r", "ho"], ["r", "hy"], ["r", "on</w>"], ["r", "y"], ["ra", "di"], ["ra", "il"], ["ra", "in</w>"], ["ra", "pi"], ["ra", "tive</w>"], ["ra", "y</w>"], ["ran", "ge</w>"], ["re", "bel"], ["re", "gar"], ["re", "leg"], ["re", "main"], ["re", "sta"], ["re", "ti"], ["re", "vol"], ["read", "y</w>"], ["rec", "re"], ["reg", "ul"], ["rela", "tion"], ["reli", "gi"], ["res", "ear"], ["respon", "si"], ["rest", "ric"], ["resta", "ur"], ["ri", "son</w>"], ["ribu", "tion</w>"], ["ric", "e</w>"], ["ro", "l"], ["ro", "om</w>"], ["ro", "ss</w>"], ["ro", "un"], ["rou", "gh"], ["rou", "gh</w>"], ["rus", "si"], ["s", "al"], ["s", "am"], ["s", "an"], ["s", "ar"], ["s", "av"], ["s", "ell</w>"], ["s", "en</w>"], ["s", "end</w>"], ["s", "ent"], ["s", "ent</w>"], ["s", "er</w>"], ["s", "ession</w>"], ["s", "ex"], ["s", "in"], ["s", "mo"], ["s", "o</w>"], ["s", "oc"], ["s", "ong"], ["s", "ons</w>"], ["s", "ul"], ["sc", "en"], ["sc", "ul"], ["sch", "edul"], ["sch", "o"], ["sci", "enti"], ["scul", "p"], ["se", "as</w>"], ["se", "e"], ["se", "e</w>"], ["se", "par"], ["sec", "re"], ["sequ", "ently</w>"], ["ser", "i"], ["ser", "ved</w>"], ["sett", "le"], ["sh", "ing</w>"], ["sh", "ire</w>"], ["sh", "oo"], ["sh", "ore</w>"], ["si", "s"], ["si", "te</w>"], ["si", "tu"], ["sou", "th"], ["sp", "e"], ["sp", "iri"], ["spec", "ies</w>"], ["spec", "im"], ["st", "ate</w>"], ["st", "ati"], ["st", "ation</w>"], ["st", "em</w>"], ["st", "ers</w>"], ["st", "ol</w>"], ["st", "one</w>"], ["st", "ood</w>"], ["st", "ra"], ["st", "y"], ["stan", "ces</w>"], ["stan", "d"], ["stan", "d</w>"], ["stor", "y"], ["str", "ated</w>"], ["str", "ateg"], ["stre", "am</w>"], ["stre", "et</w>"], ["stru", "gg"], ["struc", "ture</w>"], ["su", "pp"], ["success", "ful</w>"], ["sup", "por"], ["sur", "ren"], ["sur", "roun"], ["survi", "v"], ["sy", "n"], ["t", "al</w>"], ["t", "arg"], ["t", "en</w>"], ["t", "ex"], ["t", "in</w>"], ["t", "un"], ["t", "v</w>"], ["ta", "in"], ["ta", "ken</w>"], ["tech", "niqu"], ["tel", "e"], ["tem", "per"], ["th", "ous"], ["the", "ast</w>"], ["the", "at"], ["ther", "n</w>"], ["ti", "ally</w>"], ["ti", "ce</w>"], ["ti", "m</w>"], ["ti", "me</w>"], ["ti", "sh</w>"], ["ti", "ves</w>"], ["tic", "al</w>"], ["tic", "es</w>"], ["tim", "es</w>"], ["tou", "chdow"], ["tour", "nam"], ["tow", "n"], ["tow", "n</w>"], ["tra", "ck</w>"], ["tran", "si"], ["tre", "at"], ["tri", "bu"], ["tri", "es</w>"], ["tu", "ally</w>"], ["u", "ght</w>"], ["u", "t"], ["ul", "</w>"], ["un", "der</w>"], ["uni", "ties</w>"], ["univer", "si"], ["ur", "b"], ["ur", "s</w>"], ["us", "ing</w>"], ["us", "ual</w>"], ["v", "eg"], ["v", "ements</w>"], ["v", "ess"], ["v", "oc"], ["ve", "hic"], ["vel", "s</w>"], ["ven", "ue</w>"], ["vi", "de"], ["vi", "et"], ["vi", "et</w>"], ["vi", "ew</w>"], ["vi", "ol"], ["view", "s</w>"], ["visi", "ons</w>"], ["vo", "ic"], ["vol", "um"], ["w", "eak"], ["w", "ent</w>"], ["w", "ho"], ["w", "ic"], ["w", "ise</w>"], ["w", "oo"], ["w", "ood</w>"], ["war", "ds</w>"], ["wat", "er"], ["we", "ap"], ["wee", "k"], ["wh", "at</w>"], ["wh", "e"], ["wh", "ere</w>"], ["wh", "ite</w>"], ["whil", "e</w>"], ["wi", "de</w>"], ["wil", "li"], ["wor", "d</w>"], ["wor", "ks</w>"], ["wor", "l"], ["wri", "ter</w>"], ["y", "an"], ["y", "or"], ["y", "ou"], ["z", "e"], ["'", "</w>"], ["'", "bri"], ["'", "d</w>"], ["'", "in</w>"], ["'", "ll</w>"], ["'", "m"], ["'", "m</w>"], ["'", "re</w>"], ["'", "s</w>"], ["'", "t</w>"], ["'", "ve</w>"], ["'bri", "en</w>"], ["'m", "al"], ["'mal", "ley</w>"], ["a", "cous"], ["a", "dian</w>"], ["a", "f</w>"], ["a", "h</w>"], ["a", "ha</w>"], ["a", "head</w>"], ["a", "il"], ["a", "im"], ["a", "in"], ["a", "ine</w>"], ["a", "ins</w>"], ["a", "is"], ["a", "j"], ["a", "o</w>"], ["a", "sion</w>"], ["a", "ster</w>"], ["a", "ston</w>"], ["a", "ul"], ["a", "use</w>"], ["a", "ver"], ["a", "vi"], ["a", "w</w>"], ["a", "way</w>"], ["a", "yed</w>"], ["ab", "am"], ["ab", "and"], ["ab", "bar</w>"], ["ab", "be"], ["ab", "by</w>"], ["ab", "c</w>"], ["ab", "ell"], ["ab", "eth</w>"], ["ab", "in"], ["ab", "or"], ["ab", "out</w>"], ["ab", "road</w>"], ["ab", "s"], ["ab", "sor"], ["ab", "u</w>"], ["ab", "use</w>"], ["ab", "y</w>"], ["abam", "a</w>"], ["aband", "oned</w>"], ["abbe", "y</w>"], ["abell", "a</w>"], ["abil", "ities</w>"], ["abil", "ity</w>"], ["abin", "et</w>"], ["abo", "ard</w>"], ["abo", "ve</w>"], ["abor", "ate</w>"], ["abs", "ence</w>"], ["absor", "bed</w>"], ["ac", "cident</w>"], ["ac", "cor"], ["ac", "id</w>"], ["ac", "ity</w>"], ["ac", "le"], ["ac", "qu"], ["ac", "re</w>"], ["ac", "red</w>"], ["ac", "res</w>"], ["ac", "ross</w>"], ["ac", "ru"], ["ac", "t"], ["ac", "ted</w>"], ["ac", "tics</w>"], ["ac", "ting</w>"], ["ac", "tiv"], ["ac", "tive</w>"], ["ac", "tly</w>"], ["ac", "tor</w>"], ["ac", "tors</w>"], ["ac", "ts</w>"], ["ac", "tual</w>"], ["ac", "tually</w>"], ["ac", "u"], ["ac", "y"], ["ac", "y</w>"], ["aca", "de"], ["aca", "dem"], ["acade", "my</w>"], ["academ", "ic</w>"], ["acc", "ess</w>"], ["acc", "la"], ["acc", "ur"], ["acc", "used</w>"], ["accep", "t</w>"], ["accep", "table</w>"], ["accep", "ted</w>"], ["accla", "im</w>"], ["accompan", "ied</w>"], ["accompan", "ying</w>"], ["accor", "ding</w>"], ["accoun", "t</w>"], ["accoun", "ts</w>"], ["accur", "ate</w>"], ["ach", "ie"], ["ach", "us"], ["achie", "ve</w>"], ["achiev", "ed</w>"], ["achiev", "ement</w>"], ["achus", "et"], ["achuset", "ts</w>"], ["aci", "ds</w>"], ["aci", "fic</w>"], ["ack", "ground</w>"], ["ack", "i"], ["ack", "o</w>"], ["acki", "e</w>"], ["acle", "od</w>"], ["acous", "tic</w>"], ["acqu", "ired</w>"], ["acru", "z</w>"], ["act", "ress</w>"], ["acti", "vi"], ["acti", "vision</w>"], ["activ", "ity</w>"], ["activi", "ties</w>"], ["acu", "te</w>"], ["acy", "cl"], ["acycl", "ic</w>"], ["ad", "al</w>"], ["ad", "am</w>"], ["ad", "ams</w>"], ["ad", "cast</w>"], ["ad", "d</w>"], ["ad", "ded</w>"], ["ad", "ding</w>"], ["ad", "dition</w>"], ["ad", "dress</w>"], ["ad", "ers</w>"], ["ad", "he"], ["ad", "ish"], ["ad", "jac"], ["ad", "ly</w>"], ["ad", "m"], ["ad", "mi"], ["ad", "mitted</w>"], ["ad", "op"], ["ad", "or</w>"], ["ad", "ow</w>"], ["ad", "ron</w>"], ["ad", "s</w>"], ["ad", "stone</w>"], ["ad", "ver"], ["ad", "y</w>"], ["adap", "tation</w>"], ["adap", "ted</w>"], ["addi", "tion"], ["addi", "tional</w>"], ["addition", "ally</w>"], ["adel", "ai"], ["adel", "p"], ["adelai", "de</w>"], ["adelp", "hi"], ["adelphi", "a</w>"], ["adhe", "era</w>"], ["adish", "u</w>"], ["adjac", "ent</w>"], ["adm", "ir"], ["admi", "um</w>"], ["administ", "ration</w>"], ["administ", "rative</w>"], ["admir", "al</w>"], ["adop", "ted</w>"], ["adul", "t</w>"], ["adul", "ts</w>"], ["adv", "ance</w>"], ["adv", "ice</w>"], ["adv", "ised</w>"], ["advan", "ced</w>"], ["advan", "cing</w>"], ["advan", "t"], ["advant", "age</w>"], ["advent", "ure</w>"], ["advent", "ures</w>"], ["adver", "ti"], ["adverti", "sing</w>"], ["aer", "ial</w>"], ["aer", "ith</w>"], ["af", "ter</w>"], ["aff", "airs</w>"], ["aff", "ected</w>"], ["afric", "a</w>"], ["afric", "aine</w>"], ["afric", "an</w>"], ["after", "mat"], ["after", "no"], ["after", "wards</w>"], ["aftermat", "h</w>"], ["afterno", "on</w>"], ["ag", "ain"], ["ag", "ain</w>"], ["ag", "as</w>"], ["ag", "en"], ["ag", "ent</w>"], ["ag", "ents</w>"], ["ag", "er</w>"], ["ag", "g"], ["ag", "ine</w>"], ["ag", "le</w>"], ["ag", "ner</w>"], ["ag", "ogue</w>"], ["ag", "on"], ["ag", "ship</w>"], ["ag", "ue</w>"], ["ag", "ues</w>"], ["again", "st</w>"], ["agen", "cy</w>"], ["agg", "res"], ["aggres", "sive</w>"], ["agon", "ist</w>"], ["agre", "b</w>"], ["agre", "e</w>"], ["agre", "ed</w>"], ["agre", "ement</w>"], ["agricul", "tural</w>"], ["agricul", "ture</w>"], ["ai", "f"], ["ai", "gn</w>"], ["ai", "m</w>"], ["ai", "th</w>"], ["aif", "en"], ["aifen", "g</w>"], ["ail", "able</w>"], ["aim", "ed</w>"], ["air", "craft</w>"], ["air", "ed</w>"], ["air", "line</w>"], ["air", "lines</w>"], ["air", "man</w>"], ["air", "port</w>"], ["air", "ports</w>"], ["ais", "s"], ["aiss", "ance</w>"], ["aj", "ev"], ["ajev", "o</w>"], ["ak", "ap"], ["ak", "er</w>"], ["ak", "esp"], ["ak", "ist"], ["ak", "um</w>"], ["akap", "o</w>"], ["akesp", "ear"], ["akespear", "e</w>"], ["akist", "an</w>"], ["al", "abama</w>"], ["al", "an</w>"], ["al", "and</w>"], ["al", "b"], ["al", "ber"], ["al", "bert</w>"], ["al", "bu"], ["al", "ed</w>"], ["al", "em</w>"], ["al", "ex"], ["al", "ex</w>"], ["al", "ey</w>"], ["al", "f"], ["al", "ice</w>"], ["al", "ist</w>"], ["al", "la"], ["al", "leg"], ["al", "li"], ["al", "lied</w>"], ["al", "lies</w>"], ["al", "lo"], ["al", "located</w>"], ["al", "most</w>"], ["al", "ogue</w>"], ["al", "one</w>"], ["al", "ong"], ["al", "ong</w>"], ["al", "ready</w>"], ["al", "ry</w>"], ["al", "se</w>"], ["al", "so</w>"], ["al", "ties</w>"], ["al", "ty</w>"], ["al", "v"], ["al", "ver"], ["al", "ways</w>"], ["al", "y"], ["al", "y</w>"], ["alb", "um"], ["alber", "ta</w>"], ["albu", "m</w>"], ["album", "s</w>"], ["alex", "an"], ["alexan", "der</w>"], ["alf", "red</w>"], ["ali", "a</w>"], ["ali", "an</w>"], ["ali", "en</w>"], ["ali", "ers</w>"], ["ali", "for"], ["ali", "sts</w>"], ["ali", "ve</w>"], ["ali", "z"], ["alifor", "nia</w>"], ["aliz", "ed</w>"], ["all", "el</w>"], ["all", "er</w>"], ["all", "ery</w>"], ["all", "music</w>"], ["alla", "h</w>"], ["alleg", "ed</w>"], ["alli", "ance</w>"], ["allo", "sa"], ["allosa", "ur"], ["allosaur", "us</w>"], ["allow", "ed</w>"], ["allow", "ing</w>"], ["allow", "s</w>"], ["along", "side</w>"], ["alt", "ar"], ["alt", "ar</w>"], ["altar", "piece</w>"], ["alter", "ed</w>"], ["altern", "ate</w>"], ["altern", "ative</w>"], ["alth", "ough</w>"], ["alth", "y</w>"], ["alv", "est"], ["alver", "t</w>"], ["alvest", "on</w>"], ["aly", "sis</w>"], ["am", "an"], ["am", "at"], ["am", "b"], ["am", "ed</w>"], ["am", "entary</w>"], ["am", "i</w>"], ["am", "ic</w>"], ["am", "in"], ["am", "l</w>"], ["am", "ong"], ["am", "ong</w>"], ["am", "y</w>"], ["aman", "ita</w>"], ["amat", "e"], ["amate", "ur</w>"], ["amb", "ass"], ["ambass", "ador</w>"], ["amer", "ican</w>"], ["americ", "a</w>"], ["americ", "ans</w>"], ["amin", "o</w>"], ["amm", "ate</w>"], ["amm", "uni"], ["ammuni", "tion</w>"], ["among", "st</w>"], ["amoun", "ts</w>"], ["an", "alysis</w>"], ["an", "ces</w>"], ["an", "ci"], ["an", "cial</w>"], ["an", "cy</w>"], ["an", "de"], ["an", "el</w>"], ["an", "ese</w>"], ["an", "ical</w>"], ["an", "ish</w>"], ["an", "ist"], ["an", "ity</w>"], ["an", "n</w>"], ["an", "ni"], ["an", "o</w>"], ["an", "on"], ["an", "other</w>"], ["an", "sion</w>"], ["an", "ted</w>"], ["an", "ti"], ["an", "ti</w>"], ["an", "y</w>"], ["anci", "ent</w>"], ["and", "a</w>"], ["and", "led</w>"], ["and", "re"], ["and", "y</w>"], ["ande", "z</w>"], ["ander", "ers</w>"], ["ander", "no"], ["ander", "son</w>"], ["anderno", "o"], ["andernoo", "t</w>"], ["andre", "w</w>"], ["ang", "erous</w>"], ["ang", "le</w>"], ["ang", "lo</w>"], ["ang", "ry</w>"], ["angel", "es</w>"], ["angel", "ou</w>"], ["anim", "al</w>"], ["anim", "als</w>"], ["anim", "ated</w>"], ["anim", "ation</w>"], ["anim", "e</w>"], ["anist", "on</w>"], ["ann", "ada</w>"], ["ann", "e</w>"], ["ann", "el</w>"], ["ann", "ual</w>"], ["ann", "ually</w>"], ["ann", "y</w>"], ["anni", "ver"], ["anniver", "s"], ["annivers", "ary</w>"], ["announ", "c"], ["announ", "ced</w>"], ["announc", "ement</w>"], ["anon", "y"], ["anony", "mo"], ["anonymo", "us</w>"], ["anth", "em</w>"], ["anth", "ony</w>"], ["anti", "mon"], ["antimon", "y</w>"], ["any", "one</w>"], ["any", "thing</w>"], ["anz", "ac</w>"], ["anz", "i"], ["anzi", "bar</w>"], ["ap", "art</w>"], ["ap", "ed</w>"], ["ap", "ers</w>"], ["ap", "po"], ["ap", "pointed</w>"], ["ap", "ran"], ["ap", "ri"], ["ap", "s</w>"], ["ap", "y</w>"], ["app", "e"], ["app", "ear</w>"], ["app", "le"], ["app", "lied</w>"], ["appar", "ent</w>"], ["appar", "ently</w>"], ["appe", "al</w>"], ["appear", "ance</w>"], ["appear", "ances</w>"], ["appear", "ing</w>"], ["appear", "s</w>"], ["appl", "ication</w>"], ["appl", "ications</w>"], ["apple", "white</w>"], ["appo", "int"], ["appoint", "ment</w>"], ["appro", "ach</w>"], ["appro", "ached</w>"], ["appro", "aches</w>"], ["appro", "aching</w>"], ["appro", "pri"], ["appro", "val</w>"], ["appro", "ved</w>"], ["appro", "x"], ["appropri", "ate</w>"], ["approx", "im"], ["approxim", "ately</w>"], ["apran", "g</w>"], ["apri", "l</w>"], ["ar", "by</w>"], ["ar", "c</w>"], ["ar", "d"], ["ar", "dian</w>"], ["ar", "e"], ["ar", "eas</w>"], ["ar", "ely</w>"], ["ar", "en"], ["ar", "es</w>"], ["ar", "et</w>"], ["ar", "iety</w>"], ["ar", "ily</w>"], ["ar", "ing</w>"], ["ar", "ist</w>"], ["ar", "it"], ["ar", "ity</w>"], ["ar", "iz"], ["ar", "k"], ["ar", "kansas</w>"], ["ar", "mo"], ["ar", "ms</w>"], ["ar", "oun"], ["ar", "re"], ["ar", "rest</w>"], ["ar", "ro</w>"], ["ar", "sen"], ["ar", "ship</w>"], ["ar", "t"], ["ar", "th"], ["ar", "ts</w>"], ["arab", "</w>"], ["arab", "ic</w>"], ["arab", "s</w>"], ["arch", "bishop</w>"], ["arch", "er</w>"], ["arch", "ing</w>"], ["archaeo", "lo"], ["archaeolo", "gi"], ["archaeolog", "ical</w>"], ["archaeolog", "ist</w>"], ["archaeolog", "y</w>"], ["archaeologi", "sts</w>"], ["archit", "ect</w>"], ["architec", "tural</w>"], ["architec", "ture</w>"], ["ard", "ine</w>"], ["are", "a</w>"], ["aren", "a</w>"], ["arg", "as</w>"], ["arg", "um"], ["argent", "ina</w>"], ["argent", "ine</w>"], ["argu", "ed</w>"], ["argu", "es</w>"], ["argu", "ing</w>"], ["argum", "ent</w>"], ["ari", "o</w>"], ["ari", "ties</w>"], ["arit", "es</w>"], ["ariz", "on"], ["arizon", "a</w>"], ["ark", "son</w>"], ["arm", "ament</w>"], ["arm", "ed</w>"], ["arm", "ers</w>"], ["arm", "ies</w>"], ["arm", "or"], ["arm", "or</w>"], ["arm", "y</w>"], ["armo", "ured</w>"], ["armor", "ed</w>"], ["aroun", "d</w>"], ["arrang", "ed</w>"], ["arrang", "ement</w>"], ["arrang", "ements</w>"], ["arre", "sted</w>"], ["arri", "val</w>"], ["arri", "ve</w>"], ["arri", "ved</w>"], ["arri", "ving</w>"], ["arsen", "al</w>"], ["art", "work</w>"], ["arth", "ur</w>"], ["arti", "fic"], ["arti", "l"], ["arti", "s"], ["arti", "st</w>"], ["arti", "sts</w>"], ["artic", "le</w>"], ["artic", "les</w>"], ["artific", "ial</w>"], ["artil", "l"], ["artill", "ery</w>"], ["artis", "tic</w>"], ["as", "a</w>"], ["as", "es</w>"], ["as", "h"], ["as", "h</w>"], ["as", "hi"], ["as", "k</w>"], ["as", "ked</w>"], ["as", "ki</w>"], ["as", "king</w>"], ["as", "ks</w>"], ["as", "signed</w>"], ["as", "sion</w>"], ["as", "sive</w>"], ["as", "su"], ["as", "ure</w>"], ["ash", "ore</w>"], ["ashi", "on</w>"], ["asi", "a</w>"], ["asi", "an</w>"], ["asi", "de</w>"], ["asp", "ect</w>"], ["asp", "ects</w>"], ["ass", "achusetts</w>"], ["ass", "ass"], ["ass", "aul"], ["assass", "ination</w>"], ["assaul", "t</w>"], ["assem", "bl"], ["assem", "bly</w>"], ["assembl", "ed</w>"], ["assi", "st</w>"], ["assi", "stan"], ["assi", "stance</w>"], ["assi", "sted</w>"], ["assistan", "t</w>"], ["associ", "ated</w>"], ["associ", "ation</w>"], ["assu", "med</w>"], ["ast", "al</w>"], ["ast", "ero"], ["ast", "y</w>"], ["astero", "id</w>"], ["at", "ell"], ["at", "en</w>"], ["at", "ened</w>"], ["at", "ever</w>"], ["at", "ings</w>"], ["at", "l</w>"], ["at", "mo"], ["at", "on</w>"], ["at", "ory</w>"], ["at", "p</w>"], ["at", "rick</w>"], ["at", "ta"], ["at", "tained</w>"], ["at", "ti"], ["atell", "ite</w>"], ["ath", "ens</w>"], ["ath", "ered</w>"], ["ath", "ers</w>"], ["ath", "ews</w>"], ["ath", "s</w>"], ["ath", "us</w>"], ["athle", "te</w>"], ["athle", "tes</w>"], ["athle", "tic</w>"], ["athle", "tics</w>"], ["ati", "</w>"], ["ati", "c</w>"], ["ati", "ves</w>"], ["atlan", "ta</w>"], ["atlan", "tic</w>"], ["atmo", "sp"], ["atmosp", "here</w>"], ["atro", "l</w>"], ["atro", "pical</w>"], ["att", "ack</w>"], ["att", "acked</w>"], ["att", "acking</w>"], ["att", "acks</w>"], ["att", "end</w>"], ["att", "ended</w>"], ["att", "ention</w>"], ["att", "ers</w>"], ["att", "or"], ["att", "ra"], ["att", "ributed</w>"], ["att", "y"], ["atta", "ched</w>"], ["attemp", "t</w>"], ["attemp", "ted</w>"], ["attemp", "ting</w>"], ["attemp", "ts</w>"], ["atter", "ed</w>"], ["atti", "tu"], ["attitu", "de</w>"], ["attor", "ney</w>"], ["attra", "cted</w>"], ["atty", "cake</w>"], ["atur", "day</w>"], ["au", "burn</w>"], ["au", "g"], ["au", "ght</w>"], ["au", "st"], ["au", "sted</w>"], ["au", "stri"], ["au", "t"], ["audi", "ence</w>"], ["audi", "ences</w>"], ["audi", "o</w>"], ["aug", "us"], ["augus", "t</w>"], ["aust", "ro</w>"], ["australi", "a</w>"], ["australi", "an</w>"], ["australi", "ans</w>"], ["austri", "an</w>"], ["aut", "um"], ["auth", "or</w>"], ["author", "ities</w>"], ["author", "ity</w>"], ["author", "ized</w>"], ["author", "s</w>"], ["autum", "n</w>"], ["av", "ailable</w>"], ["av", "alry</w>"], ["av", "anger</w>"], ["av", "en"], ["av", "en</w>"], ["av", "o"], ["aven", "ue</w>"], ["aver", "age</w>"], ["avi", "ation</w>"], ["avo", "id</w>"], ["awar", "d</w>"], ["awar", "ded</w>"], ["awar", "ds</w>"], ["awar", "en"], ["awaren", "ess</w>"], ["az", "i</w>"], ["az", "z</w>"], ["b", "a</w>"], ["b", "ably</w>"], ["b", "aby</w>"], ["b", "acked</w>"], ["b", "ackground</w>"], ["b", "acking</w>"], ["b", "ad</w>"], ["b", "adly</w>"], ["b", "aker</w>"], ["b", "al</w>"], ["b", "ald</w>"], ["b", "alls</w>"], ["b", "asis</w>"], ["b", "ate</w>"], ["b", "ath</w>"], ["b", "ay</w>"], ["b", "bc</w>"], ["b", "bed</w>"], ["b", "ber</w>"], ["b", "bit</w>"], ["b", "bs</w>"], ["b", "ce</w>"], ["b", "el</w>"], ["b", "en</w>"], ["b", "est</w>"], ["b", "ill"], ["b", "ill</w>"], ["b", "ills</w>"], ["b", "in"], ["b", "it"], ["b", "la"], ["b", "loo"], ["b", "low</w>"], ["b", "n</w>"], ["b", "ol</w>"], ["b", "on"], ["b", "ond</w>"], ["b", "one</w>"], ["b", "ones</w>"], ["b", "ought</w>"], ["b", "ow</w>"], ["b", "rick</w>"], ["b", "ring</w>"], ["b", "ron"], ["b", "ru"], ["b", "site</w>"], ["b", "t</w>"], ["b", "ul"], ["b", "ull</w>"], ["b", "w</w>"], ["bal", "ance</w>"], ["bal", "lad</w>"], ["bal", "tim"], ["baltim", "ore</w>"], ["ban", "ds</w>"], ["ban", "k"], ["ban", "k</w>"], ["ban", "ks</w>"], ["ban", "ned</w>"], ["bank", "si"], ["banksi", "a</w>"], ["bar", "d"], ["bar", "i</w>"], ["bar", "ked</w>"], ["bar", "ker</w>"], ["bar", "ri"], ["bar", "row</w>"], ["bar", "ry</w>"], ["bar", "t</w>"], ["bard", "ment</w>"], ["barri", "er</w>"], ["bas", "e"], ["bas", "e</w>"], ["bas", "ed</w>"], ["bas", "ement</w>"], ["bas", "es</w>"], ["bas", "ic</w>"], ["bas", "in</w>"], ["bas", "ket"], ["bas", "s</w>"], ["base", "ball</w>"], ["basket", "ball</w>"], ["bat", "s"], ["bat", "sm"], ["bats", "man</w>"], ["batsm", "en</w>"], ["batt", "ing</w>"], ["batt", "le</w>"], ["batt", "les</w>"], ["battali", "on</w>"], ["battali", "ons</w>"], ["batter", "ies</w>"], ["batter", "y</w>"], ["battle", "field</w>"], ["battle", "ship</w>"], ["battle", "ships</w>"], ["be", "ach</w>"], ["be", "am</w>"], ["be", "an</w>"], ["be", "ar</w>"], ["be", "aring</w>"], ["be", "ars</w>"], ["be", "at</w>"], ["be", "aten</w>"], ["be", "ating</w>"], ["be", "ats</w>"], ["be", "d"], ["be", "en</w>"], ["be", "er</w>"], ["be", "et"], ["be", "fore</w>"], ["be", "h"], ["be", "half</w>"], ["be", "ing</w>"], ["be", "ings</w>"], ["be", "t</w>"], ["beau", "ti"], ["beau", "ty</w>"], ["beauti", "ful</w>"], ["bec", "ame</w>"], ["bec", "ause</w>"], ["becom", "e</w>"], ["becom", "es</w>"], ["becom", "ing</w>"], ["bed", "ell</w>"], ["beet", "on</w>"], ["beg", "an</w>"], ["beg", "in</w>"], ["beg", "inning</w>"], ["beg", "ins</w>"], ["beg", "un</w>"], ["beh", "ind</w>"], ["behavi", "or</w>"], ["behavi", "our</w>"], ["bel", "ong"], ["bel", "ow</w>"], ["bel", "t</w>"], ["belgi", "an</w>"], ["belgi", "um</w>"], ["belie", "f"], ["belie", "f</w>"], ["belie", "ve</w>"], ["belief", "s</w>"], ["believ", "ed</w>"], ["believ", "es</w>"], ["believ", "ing</w>"], ["belong", "ing</w>"], ["ben", "e"], ["ben", "jam"], ["ben", "net"], ["bene", "fit</w>"], ["benjam", "in</w>"], ["bennet", "t</w>"], ["ber", "al</w>"], ["ber", "ed</w>"], ["ber", "h"], ["ber", "lin</w>"], ["ber", "tin</w>"], ["ber", "ts</w>"], ["ber", "y</w>"], ["berh", "tw"], ["berhtw", "ald</w>"], ["bet", "ter</w>"], ["bet", "we"], ["betwe", "en</w>"], ["bey", "on"], ["bey", "ond</w>"], ["beyon", "c</w>"], ["bi", "a</w>"], ["bi", "bl"], ["bi", "ble</w>"], ["bi", "d</w>"], ["bi", "dden"], ["bi", "g</w>"], ["bi", "gg"], ["bi", "s</w>"], ["bibl", "ical</w>"], ["bidden", "den</w>"], ["bigg", "est</w>"], ["bil", "e</w>"], ["bil", "lion</w>"], ["bil", "ly</w>"], ["bill", "board</w>"], ["bin", "son</w>"], ["bio", "logical</w>"], ["biograph", "er</w>"], ["biograph", "y</w>"], ["bir", "</w>"], ["bir", "d</w>"], ["bir", "ds</w>"], ["bir", "m"], ["bir", "th"], ["bir", "th</w>"], ["birm", "ing"], ["birming", "h"], ["birmingh", "am</w>"], ["birth", "day</w>"], ["bisho", "ps</w>"], ["bit", "t</w>"], ["bl", "ack</w>"], ["bl", "ackie</w>"], ["bl", "acks</w>"], ["bl", "in</w>"], ["bl", "u</w>"], ["bl", "ue</w>"], ["bl", "ues</w>"], ["bla", "z"], ["blaz", "er</w>"], ["ble", "don</w>"], ["bloc", "k</w>"], ["bloc", "ked</w>"], ["bloc", "ks</w>"], ["bloo", "d</w>"], ["bo", "at</w>"], ["bo", "ats</w>"], ["bo", "b</w>"], ["bo", "dies</w>"], ["bo", "dy"], ["bo", "dy</w>"], ["bo", "ise</w>"], ["bo", "om</w>"], ["bo", "ss</w>"], ["bo", "ston</w>"], ["bo", "th</w>"], ["bo", "tt"], ["bo", "und</w>"], ["bo", "x"], ["bo", "x</w>"], ["bo", "ys</w>"], ["body", "line</w>"], ["bom", "b</w>"], ["bom", "bardment</w>"], ["bom", "bing</w>"], ["bom", "bs</w>"], ["bon", "o</w>"], ["boo", "k</w>"], ["boo", "ks</w>"], ["bor", "der</w>"], ["bor", "ders</w>"], ["bor", "n</w>"], ["bott", "om</w>"], ["bound", "aries</w>"], ["bound", "ary</w>"], ["bow", "l</w>"], ["bow", "ling</w>"], ["box", "ing</w>"], ["br", "ary</w>"], ["br", "ated</w>"], ["br", "ing"], ["bra", "</w>"], ["bra", "athens</w>"], ["bra", "cel"], ["bra", "in</w>"], ["bra", "sk"], ["bra", "z"], ["bracel", "et</w>"], ["brad", "ford</w>"], ["brad", "man</w>"], ["brad", "street</w>"], ["bran", "ch</w>"], ["bran", "d</w>"], ["bran", "e</w>"], ["brask", "a</w>"], ["braz", "il</w>"], ["bre", "ed</w>"], ["bre", "eding</w>"], ["bre", "th"], ["brea", "king</w>"], ["brea", "ks</w>"], ["breth", "ren</w>"], ["bri", "an</w>"], ["bri", "d"], ["bri", "ga"], ["bri", "gg"], ["bri", "ght</w>"], ["bri", "l"], ["bri", "stol</w>"], ["bri", "tain</w>"], ["bri", "tish</w>"], ["brid", "ges</w>"], ["brie", "f</w>"], ["brie", "fly</w>"], ["brig", "ade</w>"], ["brig", "ades</w>"], ["briga", "dier</w>"], ["brigg", "s</w>"], ["bril", "li"], ["brilli", "ant</w>"], ["bring", "ing</w>"], ["bro", "ad</w>"], ["bro", "adcast</w>"], ["bro", "adway</w>"], ["bro", "ke</w>"], ["bro", "ken</w>"], ["bro", "o"], ["bro", "ther</w>"], ["bro", "thers</w>"], ["bro", "ught</w>"], ["bro", "wn</w>"], ["bron", "ze</w>"], ["broo", "ks</w>"], ["bru", "ary</w>"], ["bu", "d"], ["bu", "do</w>"], ["bu", "o"], ["bu", "re"], ["bu", "sh</w>"], ["bu", "ted</w>"], ["bu", "y</w>"], ["bud", "get</w>"], ["buil", "d</w>"], ["buil", "ding</w>"], ["buil", "dings</w>"], ["bul", "ls</w>"], ["buo", "ys</w>"], ["bur", "ial</w>"], ["bur", "ied</w>"], ["bur", "ned</w>"], ["bur", "ning</w>"], ["bur", "ns</w>"], ["bur", "y</w>"], ["bure", "au</w>"], ["busin", "ess"], ["busin", "ess</w>"], ["business", "es</w>"], ["c", "a</w>"], ["c", "abinet</w>"], ["c", "admium</w>"], ["c", "alifornia</w>"], ["c", "all</w>"], ["c", "alled</w>"], ["c", "alling</w>"], ["c", "alls</w>"], ["c", "alvert</w>"], ["c", "ar</w>"], ["c", "ase</w>"], ["c", "at</w>"], ["c", "attle</w>"], ["c", "aught</w>"], ["c", "avalry</w>"], ["c", "aves</w>"], ["c", "bs</w>"], ["c", "car"], ["c", "d</w>"], ["c", "ei"], ["c", "ell</w>"], ["c", "ells</w>"], ["c", "em"], ["c", "ements</w>"], ["c", "en"], ["c", "entered</w>"], ["c", "ess"], ["c", "il</w>"], ["c", "in"], ["c", "is"], ["c", "ited</w>"], ["c", "iting</w>"], ["c", "ity</w>"], ["c", "k"], ["c", "key</w>"], ["c", "lim"], ["c", "m</w>"], ["c", "ps</w>"], ["c", "res"], ["c", "rus"], ["c", "ry"], ["c", "tions</w>"], ["c", "tive</w>"], ["c", "ue</w>"], ["c", "um"], ["c", "ur</w>"], ["ca", "de"], ["ca", "es"], ["ca", "ster</w>"], ["ca", "ve</w>"], ["cade", "ts</w>"], ["caes", "ar</w>"], ["cam", "bridge</w>"], ["cam", "e</w>"], ["cam", "era</w>"], ["cam", "p</w>"], ["cam", "ps</w>"], ["cam", "pus</w>"], ["camp", "aign</w>"], ["camp", "bell</w>"], ["can", "ada</w>"], ["can", "adian</w>"], ["can", "al</w>"], ["can", "als</w>"], ["can", "not</w>"], ["can", "on</w>"], ["can", "ter"], ["can", "tre"], ["can", "y"], ["canc", "elled</w>"], ["canc", "er</w>"], ["candid", "ate</w>"], ["candid", "ates</w>"], ["canter", "bury</w>"], ["cantre", "ll</w>"], ["cany", "on</w>"], ["cap", "</w>"], ["cap", "able</w>"], ["cap", "acity</w>"], ["cap", "ed</w>"], ["cap", "ital</w>"], ["cap", "tain</w>"], ["cap", "ture</w>"], ["captur", "ed</w>"], ["captur", "ing</w>"], ["car", "d"], ["car", "d</w>"], ["car", "diff"], ["car", "ds</w>"], ["car", "e</w>"], ["car", "eer</w>"], ["car", "ey</w>"], ["car", "go</w>"], ["car", "ia</w>"], ["car", "ib"], ["car", "l</w>"], ["car", "m"], ["car", "ol"], ["car", "ol</w>"], ["car", "p"], ["car", "r"], ["car", "re</w>"], ["car", "ry</w>"], ["car", "s</w>"], ["car", "ter</w>"], ["car", "ved</w>"], ["card", "in"], ["cardiff", "</w>"], ["cardin", "al</w>"], ["carib", "bean</w>"], ["carm", "el</w>"], ["carol", "ina</w>"], ["carp", "enter</w>"], ["carr", "ying</w>"], ["carri", "ed</w>"], ["carri", "es</w>"], ["cas", "es</w>"], ["cas", "h</w>"], ["cas", "u"], ["cast", "ing</w>"], ["cast", "le</w>"], ["casu", "alties</w>"], ["cat", "ch</w>"], ["cat", "e"], ["cat", "er</w>"], ["cate", "ch"], ["catech", "ism</w>"], ["categ", "or"], ["categ", "ory</w>"], ["categor", "ies</w>"], ["cath", "ed"], ["cathed", "r"], ["cathedr", "al</w>"], ["cathol", "ic</w>"], ["cathol", "ics</w>"], ["caus", "e</w>"], ["caus", "ed</w>"], ["caus", "es</w>"], ["caus", "ing</w>"], ["caus", "t</w>"], ["cc", "all</w>"], ["ccar", "t"], ["ccart", "ney</w>"], ["cei", "ved</w>"], ["cel", "e"], ["cel", "tic</w>"], ["cele", "brated</w>"], ["cem", "e"], ["ceme", "ter"], ["cemeter", "y</w>"], ["cen", "su"], ["censu", "s</w>"], ["cent", "age</w>"], ["cent", "er</w>"], ["cent", "ers</w>"], ["cent", "ration</w>"], ["cent", "re</w>"], ["centr", "al</w>"], ["centr", "ated</w>"], ["centur", "ies</w>"], ["centur", "y</w>"], ["cer", "em"], ["cer", "es</w>"], ["cer", "tain"], ["cer", "tain</w>"], ["cer", "ti"], ["cerem", "ony</w>"], ["certain", "ly</w>"], ["certi", "fied</w>"], ["cess", "ing</w>"], ["ch", "agas</w>"], ["ch", "ain</w>"], ["ch", "ains</w>"], ["ch", "air</w>"], ["ch", "airman</w>"], ["ch", "ance</w>"], ["ch", "anical</w>"], ["ch", "annel</w>"], ["ch", "ased</w>"], ["ch", "craft</w>"], ["ch", "el</w>"], ["ch", "else"], ["ch", "em"], ["ch", "ens</w>"], ["ch", "ess</w>"], ["ch", "ev"], ["ch", "ie"], ["ch", "in"], ["ch", "ina</w>"], ["ch", "ise</w>"], ["ch", "oo"], ["ch", "or"], ["chall", "en"], ["chall", "eng"], ["challen", "ge</w>"], ["challeng", "ing</w>"], ["cham", "ber</w>"], ["champi", "on</w>"], ["champi", "ons</w>"], ["champion", "ship</w>"], ["champion", "ships</w>"], ["chang", "ed</w>"], ["chang", "es</w>"], ["chang", "ing</w>"], ["chap", "el</w>"], ["chap", "ter</w>"], ["chap", "ters</w>"], ["char", "ge</w>"], ["char", "ged</w>"], ["char", "ges</w>"], ["char", "ity</w>"], ["char", "les</w>"], ["char", "lie</w>"], ["char", "lo"], ["char", "m"], ["char", "t</w>"], ["char", "ted</w>"], ["char", "ter</w>"], ["char", "ts</w>"], ["charac", "ter</w>"], ["charac", "ters</w>"], ["character", "ized</w>"], ["characteris", "tic</w>"], ["characteris", "tics</w>"], ["charlo", "t"], ["charlot", "te</w>"], ["charm", "bracelet</w>"], ["chelse", "a</w>"], ["chem", "ical</w>"], ["chest", "er</w>"], ["chest", "ra</w>"], ["chev", "aliers</w>"], ["chic", "ago</w>"], ["chic", "ks</w>"], ["chie", "f</w>"], ["chil", "d</w>"], ["child", "ho"], ["child", "ren</w>"], ["childho", "od</w>"], ["chin", "ese</w>"], ["cho", "ice</w>"], ["cho", "ir</w>"], ["cho", "se</w>"], ["cho", "sen</w>"], ["choo", "se</w>"], ["chor", "us</w>"], ["chri", "s</w>"], ["chri", "st</w>"], ["christ", "ine</w>"], ["christ", "ma"], ["christ", "op"], ["christi", "</w>"], ["christi", "an</w>"], ["christi", "anity</w>"], ["christi", "ans</w>"], ["christma", "s</w>"], ["christop", "her</w>"], ["chronic", "le</w>"], ["chronic", "les</w>"], ["chur", "ch</w>"], ["chur", "ches</w>"], ["ci", "pal</w>"], ["ci", "pit"], ["ci", "s</w>"], ["ci", "ti"], ["ci", "ties</w>"], ["cin", "em"], ["cinem", "a</w>"], ["cipit", "ation</w>"], ["cir", "cle</w>"], ["cir", "cu"], ["cir", "cul"], ["cir", "cum"], ["circu", "it</w>"], ["circul", "ation</w>"], ["circum", "stances</w>"], ["cis", "co</w>"], ["citi", "z"], ["citiz", "ens</w>"], ["civ", "il</w>"], ["civil", "ian</w>"], ["civil", "ians</w>"], ["ck", "y</w>"], ["cl", "ark</w>"], ["cl", "arkson</w>"], ["cl", "ass</w>"], ["cl", "int"], ["cl", "one</w>"], ["cla", "im</w>"], ["cla", "y</w>"], ["claim", "ed</w>"], ["claim", "ing</w>"], ["claim", "s</w>"], ["class", "es</w>"], ["class", "ic</w>"], ["class", "ical</w>"], ["classi", "fic"], ["classi", "fied</w>"], ["classific", "ation</w>"], ["cle", "an</w>"], ["cle", "ared</w>"], ["cle", "arly</w>"], ["cle", "us</w>"], ["cle", "vel"], ["clevel", "and</w>"], ["clim", "ate</w>"], ["clint", "on</w>"], ["clo", "ck</w>"], ["clo", "cks</w>"], ["clo", "se</w>"], ["clo", "sed</w>"], ["clo", "sing</w>"], ["clo", "sure</w>"], ["clo", "th"], ["clo", "thing</w>"], ["clo", "u"], ["clos", "ely</w>"], ["clos", "er</w>"], ["clos", "est</w>"], ["cloth", "es</w>"], ["clou", "d</w>"], ["clu", "b</w>"], ["clu", "bs</w>"], ["co", "ach</w>"], ["co", "aches</w>"], ["co", "aching</w>"], ["co", "al</w>"], ["co", "ast</w>"], ["co", "astal</w>"], ["co", "bra</w>"], ["co", "de</w>"], ["co", "in</w>"], ["co", "ins</w>"], ["co", "le"], ["co", "le</w>"], ["co", "ol</w>"], ["co", "operation</w>"], ["co", "st</w>"], ["co", "sts</w>"], ["co", "tt"], ["co", "ul"], ["co", "uld</w>"], ["co", "vers</w>"], ["col", "d</w>"], ["col", "drum</w>"], ["col", "labor"], ["col", "n</w>"], ["col", "ony</w>"], ["col", "or"], ["col", "or</w>"], ["cole", "man</w>"], ["collabor", "ation</w>"], ["collap", "se</w>"], ["collap", "sed</w>"], ["colle", "agues</w>"], ["colle", "cted</w>"], ["colle", "ction</w>"], ["colle", "ge</w>"], ["colo", "ur</w>"], ["colo", "urs</w>"], ["colon", "el</w>"], ["colon", "ial</w>"], ["colon", "ies</w>"], ["color", "ado</w>"], ["colum", "bia</w>"], ["colum", "bus</w>"], ["colum", "n</w>"], ["colum", "ns</w>"], ["com", "</w>"], ["com", "bat</w>"], ["com", "ed"], ["com", "es</w>"], ["com", "ic</w>"], ["com", "ics</w>"], ["com", "ing</w>"], ["com", "pos"], ["com", "posed</w>"], ["com", "position</w>"], ["com", "positions</w>"], ["com", "pu"], ["comb", "ination</w>"], ["comb", "ined</w>"], ["comed", "y</w>"], ["comm", "and</w>"], ["comm", "enced</w>"], ["comm", "ended</w>"], ["comm", "ent"], ["comm", "ented</w>"], ["comm", "ents</w>"], ["comm", "it"], ["comm", "itted</w>"], ["comm", "on</w>"], ["comm", "ons</w>"], ["comm", "unities</w>"], ["comman", "ded</w>"], ["comman", "der</w>"], ["comman", "ding</w>"], ["comman", "do"], ["command", "ers</w>"], ["command", "ment</w>"], ["command", "ments</w>"], ["commando", "s</w>"], ["comment", "ing</w>"], ["commer", "ce</w>"], ["commer", "cial</w>"], ["commis", "sion</w>"], ["commissi", "on"], ["commission", "er</w>"], ["commit", "te"], ["committe", "e</w>"], ["common", "ly</w>"], ["common", "we"], ["commonwe", "alth</w>"], ["commun", "ication</w>"], ["commun", "ications</w>"], ["commun", "ist</w>"], ["commun", "ity</w>"], ["comp", "il"], ["comp", "lim"], ["comp", "ri"], ["compan", "ies</w>"], ["compan", "y</w>"], ["compar", "ed</w>"], ["compar", "ison</w>"], ["compe", "te</w>"], ["competi", "tion</w>"], ["competi", "tions</w>"], ["competi", "tive</w>"], ["compil", "ation</w>"], ["comple", "t"], ["comple", "te</w>"], ["comple", "ted</w>"], ["comple", "ting</w>"], ["comple", "tion</w>"], ["comple", "x</w>"], ["complet", "ely</w>"], ["complim", "ented</w>"], ["compo", "und</w>"], ["compo", "unds</w>"], ["compon", "ent</w>"], ["compon", "ents</w>"], ["compos", "er</w>"], ["compri", "sed</w>"], ["compu", "ter</w>"], ["con", "centrated</w>"], ["con", "centration</w>"], ["con", "cre"], ["con", "dem"], ["con", "di"], ["con", "dition</w>"], ["con", "dom"], ["con", "dom</w>"], ["con", "f"], ["con", "fer"], ["con", "fir"], ["con", "fu"], ["con", "g</w>"], ["con", "go</w>"], ["con", "gress</w>"], ["con", "jun"], ["con", "qu"], ["con", "sec"], ["con", "sent</w>"], ["con", "sequently</w>"], ["con", "stitu"], ["con", "tain</w>"], ["con", "tained</w>"], ["con", "v"], ["con", "ven"], ["con", "vin"], ["con", "vo"], ["conc", "ept</w>"], ["conc", "ession</w>"], ["concer", "n</w>"], ["concer", "ned</w>"], ["concer", "ning</w>"], ["concer", "ns</w>"], ["concer", "t</w>"], ["concer", "ts</w>"], ["conclu", "ded</w>"], ["conclu", "sion</w>"], ["concre", "te</w>"], ["condem", "ned</w>"], ["condi", "tions</w>"], ["condom", "s</w>"], ["conduc", "t</w>"], ["conduc", "ted</w>"], ["conf", "ession</w>"], ["confer", "ence</w>"], ["confir", "med</w>"], ["conflic", "t</w>"], ["conflic", "ts</w>"], ["confu", "sion</w>"], ["conjun", "ction</w>"], ["conn", "aissance</w>"], ["conn", "ected</w>"], ["conn", "ection</w>"], ["connec", "ting</w>"], ["connec", "tions</w>"], ["conqu", "est</w>"], ["consec", "u"], ["consecu", "tive</w>"], ["conserv", "ation</w>"], ["conserv", "ative</w>"], ["consi", "der</w>"], ["consi", "ders</w>"], ["consi", "sted</w>"], ["consi", "sts</w>"], ["consider", "able</w>"], ["consider", "ed</w>"], ["consider", "ing</w>"], ["consist", "ent</w>"], ["consist", "ently</w>"], ["consist", "ing</w>"], ["constan", "t"], ["constan", "t</w>"], ["constant", "ine</w>"], ["constitu", "tion</w>"], ["construc", "ted</w>"], ["cont", "act</w>"], ["cont", "em"], ["cont", "ent</w>"], ["cont", "est</w>"], ["cont", "ext</w>"], ["cont", "ributed</w>"], ["cont", "ribution</w>"], ["conta", "ining</w>"], ["conta", "ins</w>"], ["contem", "porary</w>"], ["contin", "ental</w>"], ["contin", "ue</w>"], ["contin", "ues</w>"], ["continu", "ed</w>"], ["continu", "ing</w>"], ["continu", "ous</w>"], ["contra", "ct</w>"], ["contra", "st</w>"], ["contro", "l</w>"], ["control", "led</w>"], ["control", "ler</w>"], ["controver", "s"], ["controver", "si"], ["controvers", "y</w>"], ["controversi", "al</w>"], ["conv", "ection</w>"], ["conven", "tion</w>"], ["conver", "s"], ["conver", "sion</w>"], ["conver", "ted</w>"], ["convers", "ation</w>"], ["convin", "ced</w>"], ["convo", "y</w>"], ["cop", "ies</w>"], ["cop", "y</w>"], ["cor", "ated</w>"], ["cor", "bet</w>"], ["cor", "e</w>"], ["cor", "n</w>"], ["cor", "ner</w>"], ["cor", "ps</w>"], ["cor", "pus</w>"], ["cor", "rec"], ["cor", "t</w>"], ["corpor", "ated</w>"], ["corpor", "ation</w>"], ["correc", "t</w>"], ["cott", "on</w>"], ["cou", "gar"], ["cou", "gar</w>"], ["cou", "p</w>"], ["cou", "ple</w>"], ["cougar", "s</w>"], ["coul", "d"], ["could", "n</w>"], ["coun", "cil</w>"], ["coun", "t</w>"], ["coun", "ter"], ["coun", "ter</w>"], ["coun", "ties</w>"], ["coun", "tries</w>"], ["coun", "try</w>"], ["coun", "ty</w>"], ["counter", "ed</w>"], ["cour", "aged</w>"], ["cour", "se</w>"], ["cour", "ses</w>"], ["cour", "t</w>"], ["cour", "ts</w>"], ["cous", "in</w>"], ["cover", "age</w>"], ["cover", "ing</w>"], ["cra", "ke</w>"], ["cra", "sh</w>"], ["cra", "tic</w>"], ["cra", "z"], ["craz", "y</w>"], ["cre", "ate</w>"], ["cre", "ated</w>"], ["cre", "ating</w>"], ["cre", "ation</w>"], ["cre", "ative</w>"], ["cre", "ator</w>"], ["cre", "ek</w>"], ["cre", "ut"], ["cre", "w</w>"], ["cre", "ws</w>"], ["credi", "t</w>"], ["credi", "ted</w>"], ["credi", "ts</w>"], ["cres", "sw"], ["cressw", "ell</w>"], ["creut", "z</w>"], ["cri", "me</w>"], ["cri", "min"], ["cri", "sis</w>"], ["cri", "tic</w>"], ["cri", "tics</w>"], ["cric", "ket</w>"], ["cric", "kets</w>"], ["crimin", "al</w>"], ["critic", "al</w>"], ["critic", "ised</w>"], ["critic", "ism</w>"], ["critic", "ized</w>"], ["cro", "ps</w>"], ["cro", "ss</w>"], ["cro", "sses</w>"], ["cro", "w"], ["cro", "wn</w>"], ["croati", "a</w>"], ["croati", "an</w>"], ["cros", "sed</w>"], ["cros", "sing</w>"], ["crow", "d</w>"], ["cru", "ise</w>"], ["cru", "sh</w>"], ["cruis", "er</w>"], ["cruis", "ers</w>"], ["crus", "aders</w>"], ["cry", "st"], ["cryst", "al</w>"], ["cu", "bs</w>"], ["cu", "ed</w>"], ["cu", "p</w>"], ["cu", "t</w>"], ["cu", "tting</w>"], ["cul", "l"], ["cul", "t</w>"], ["cul", "tural</w>"], ["cul", "ture</w>"], ["cull", "en</w>"], ["cur", "ved</w>"], ["curr", "ent</w>"], ["curr", "ently</w>"], ["cy", "cle</w>"], ["cy", "clone</w>"], ["cy", "ru"], ["cyru", "s</w>"], ["d", "ad</w>"], ["d", "ag</w>"], ["d", "am</w>"], ["d", "ams</w>"], ["d", "anger</w>"], ["d", "angerous</w>"], ["d", "anny</w>"], ["d", "ar</w>"], ["d", "ark</w>"], ["d", "ary</w>"], ["d", "ate</w>"], ["d", "ates</w>"], ["d", "ating</w>"], ["d", "ation</w>"], ["d", "c</w>"], ["d", "d"], ["d", "d</w>"], ["d", "de"], ["d", "ding</w>"], ["d", "ely</w>"], ["d", "father</w>"], ["d", "h</w>"], ["d", "house</w>"], ["d", "j"], ["d", "jo"], ["d", "ley</w>"], ["d", "life</w>"], ["d", "na</w>"], ["d", "ner</w>"], ["d", "ney</w>"], ["d", "one</w>"], ["d", "ow</w>"], ["d", "r"], ["d", "r</w>"], ["d", "red</w>"], ["d", "res"], ["d", "ry</w>"], ["d", "track</w>"], ["d", "v"], ["d", "wide</w>"], ["da", "en"], ["da", "h"], ["da", "ily</w>"], ["da", "ko"], ["da", "ve</w>"], ["da", "wn</w>"], ["da", "y"], ["da", "ys</w>"], ["daen", "athus</w>"], ["dah", "o</w>"], ["dako", "ta</w>"], ["dam", "age</w>"], ["dam", "aged</w>"], ["dan", "cing</w>"], ["dan", "i"], ["dani", "el</w>"], ["dat", "a</w>"], ["dat", "ors</w>"], ["daugh", "ter</w>"], ["daugh", "ters</w>"], ["davi", "d</w>"], ["davi", "s</w>"], ["day", "dream</w>"], ["dd", "le</w>"], ["dde", "ss</w>"], ["dden", "ly</w>"], ["de", "ad</w>"], ["de", "al</w>"], ["de", "an</w>"], ["de", "ath</w>"], ["de", "aths</w>"], ["de", "bate</w>"], ["de", "but</w>"], ["de", "buted</w>"], ["de", "commissioned</w>"], ["de", "corated</w>"], ["de", "ed</w>"], ["de", "emed</w>"], ["de", "ep</w>"], ["de", "er</w>"], ["de", "gro"], ["de", "ities</w>"], ["de", "ity</w>"], ["de", "mo"], ["de", "mon"], ["de", "part"], ["de", "pres"], ["de", "pu"], ["de", "ser"], ["de", "st</w>"], ["de", "struc"], ["de", "t"], ["de", "tro"], ["de", "v"], ["dec", "ade</w>"], ["dec", "ades</w>"], ["dec", "ay</w>"], ["dec", "ember</w>"], ["dec", "essor</w>"], ["dec", "k</w>"], ["deci", "ded</w>"], ["deci", "des</w>"], ["deci", "sion</w>"], ["deci", "sions</w>"], ["decl", "ared</w>"], ["decl", "ine</w>"], ["decl", "ined</w>"], ["dedic", "ated</w>"], ["dedic", "ation</w>"], ["def", "eat</w>"], ["def", "ence</w>"], ["def", "ences</w>"], ["def", "end</w>"], ["defe", "ated</w>"], ["defe", "ating</w>"], ["defen", "ded</w>"], ["defen", "der</w>"], ["defen", "ders</w>"], ["defen", "ding</w>"], ["defen", "se</w>"], ["defen", "sive</w>"], ["defin", "ed</w>"], ["defin", "ition</w>"], ["degre", "e</w>"], ["degre", "es</w>"], ["degro", "m</w>"], ["del", "aware</w>"], ["del", "ay</w>"], ["del", "ayed</w>"], ["del", "s</w>"], ["deliver", "ed</w>"], ["deliver", "y</w>"], ["dem", "ol"], ["dem", "on</w>"], ["deman", "d</w>"], ["deman", "ds</w>"], ["demo", "cratic</w>"], ["demol", "ished</w>"], ["demon", "strated</w>"], ["den", "ied</w>"], ["den", "nis</w>"], ["den", "s</w>"], ["den", "se</w>"], ["dep", "lo"], ["dep", "th</w>"], ["depar", "ted</w>"], ["depar", "ture</w>"], ["depart", "ment</w>"], ["depen", "dence</w>"], ["depen", "ding</w>"], ["depic", "ted</w>"], ["depic", "ting</w>"], ["depic", "tion</w>"], ["depic", "ts</w>"], ["deplo", "yed</w>"], ["depres", "sion</w>"], ["depu", "ty</w>"], ["der", "by</w>"], ["der", "ff"], ["der", "i"], ["der", "ick</w>"], ["der", "ing</w>"], ["der", "show"], ["derff", "l"], ["derffl", "ing"], ["derffling", "er</w>"], ["deri", "ved</w>"], ["dershow", "it"], ["dershowit", "z</w>"], ["descri", "be</w>"], ["descri", "bed</w>"], ["descri", "bes</w>"], ["descri", "bing</w>"], ["descri", "p"], ["descrip", "tion</w>"], ["deser", "t</w>"], ["desi", "an</w>"], ["desi", "gn</w>"], ["desi", "re</w>"], ["design", "ated</w>"], ["design", "ation</w>"], ["design", "ed</w>"], ["design", "er</w>"], ["design", "s</w>"], ["desp", "ite</w>"], ["desp", "read</w>"], ["dest", "in"], ["dest", "ination</w>"], ["destin", "y</w>"], ["destro", "y"], ["destro", "y</w>"], ["destro", "yed</w>"], ["destro", "yer</w>"], ["destroy", "ers</w>"], ["destruc", "tion</w>"], ["det", "ected</w>"], ["deta", "il</w>"], ["deta", "iled</w>"], ["deta", "ils</w>"], ["deter", "min"], ["deter", "mine</w>"], ["determin", "ed</w>"], ["detro", "it</w>"], ["dev", "in</w>"], ["devel", "op</w>"], ["develop", "ed</w>"], ["develop", "ing</w>"], ["develop", "ment</w>"], ["dh", "am</w>"], ["dh", "ei"], ["dhei", "m</w>"], ["di", "</w>"], ["di", "alogue</w>"], ["di", "d</w>"], ["di", "e</w>"], ["di", "ed</w>"], ["di", "ers</w>"], ["di", "et</w>"], ["di", "fied</w>"], ["di", "g"], ["di", "stance</w>"], ["di", "stances</w>"], ["di", "tional</w>"], ["di", "um</w>"], ["di", "vi"], ["di", "vision</w>"], ["di", "visions</w>"], ["diam", "e"], ["diam", "ond</w>"], ["diame", "ter</w>"], ["dic", "ted</w>"], ["did", "n</w>"], ["differ", "ence</w>"], ["differ", "ences</w>"], ["differ", "ent</w>"], ["difficul", "t</w>"], ["difficul", "ties</w>"], ["difficul", "ty</w>"], ["dig", "ital</w>"], ["direc", "t</w>"], ["direc", "ted</w>"], ["direc", "ting</w>"], ["direc", "tion</w>"], ["direc", "tly</w>"], ["direc", "tor</w>"], ["direc", "tors</w>"], ["dis", "appeared</w>"], ["dis", "aster</w>"], ["dis", "c</w>"], ["dis", "cover</w>"], ["dis", "covered</w>"], ["dis", "covery</w>"], ["dis", "e"], ["dis", "h</w>"], ["dis", "missed</w>"], ["dis", "placed</w>"], ["dis", "pu"], ["dis", "si"], ["discus", "s</w>"], ["discus", "sed</w>"], ["discus", "sion</w>"], ["dise", "ase</w>"], ["displa", "y</w>"], ["displa", "yed</w>"], ["displa", "ys</w>"], ["dispu", "te</w>"], ["dissi", "p"], ["dissip", "ated</w>"], ["dist", "ing"], ["dist", "ributed</w>"], ["dist", "ribution</w>"], ["dist", "urb"], ["distin", "ct</w>"], ["distin", "ctive</w>"], ["disting", "u"], ["distingu", "ished</w>"], ["distric", "t</w>"], ["distric", "ts</w>"], ["disturb", "ance</w>"], ["div", "ine</w>"], ["div", "ines</w>"], ["div", "or"], ["divi", "ded</w>"], ["divor", "ce</w>"], ["dj", "ed"], ["djed", "k"], ["djedk", "are</w>"], ["djo", "kovic</w>"], ["do", "es"], ["do", "es</w>"], ["do", "g</w>"], ["do", "ing</w>"], ["do", "t</w>"], ["do", "ta</w>"], ["do", "ver</w>"], ["do", "y"], ["doc", "k</w>"], ["doc", "tor</w>"], ["docum", "ent</w>"], ["docum", "entary</w>"], ["docum", "ented</w>"], ["docum", "ents</w>"], ["does", "n</w>"], ["dol", "ence</w>"], ["doll", "ar</w>"], ["doll", "ars</w>"], ["dom", "es"], ["domes", "tic</w>"], ["domin", "ant</w>"], ["domin", "antly</w>"], ["domin", "ated</w>"], ["domin", "ican</w>"], ["don", "ald</w>"], ["don", "ated</w>"], ["dou", "ble</w>"], ["dou", "bt</w>"], ["dou", "g"], ["doug", "las</w>"], ["dow", "n</w>"], ["dow", "s</w>"], ["down", "lo"], ["down", "stream</w>"], ["down", "town</w>"], ["downlo", "ad</w>"], ["doy", "le</w>"], ["dr", "inking</w>"], ["dra", "ft</w>"], ["dra", "in"], ["dra", "w</w>"], ["dra", "wing</w>"], ["dra", "wn</w>"], ["dra", "ws</w>"], ["drain", "age</w>"], ["dram", "a</w>"], ["dram", "atic</w>"], ["dre", "ds</w>"], ["dres", "sed</w>"], ["dri", "ve</w>"], ["dri", "ven</w>"], ["dri", "ver</w>"], ["dri", "vers</w>"], ["dri", "ving</w>"], ["dro", "p</w>"], ["dro", "pped</w>"], ["dro", "ve</w>"], ["dru", "g</w>"], ["dru", "ms</w>"], ["du", "</w>"], ["du", "bbed</w>"], ["du", "blin</w>"], ["du", "ces</w>"], ["du", "dley</w>"], ["du", "e</w>"], ["du", "et</w>"], ["du", "ke</w>"], ["du", "mon"], ["du", "o</w>"], ["du", "t"], ["du", "ties</w>"], ["du", "ty</w>"], ["dumon", "t</w>"], ["dur", "ation</w>"], ["dur", "ing</w>"], ["dut", "ch</w>"], ["dv", "d</w>"], ["dy", "l"], ["dy", "n"], ["dy", "nam"], ["dyl", "an</w>"], ["dyn", "asty</w>"], ["dynam", "ic</w>"], ["e", "agle</w>"], ["e", "ast</w>"], ["e", "asy</w>"], ["e", "aton</w>"], ["e", "ch</w>"], ["e", "dition</w>"], ["e", "dom</w>"], ["e", "eded</w>"], ["e", "es</w>"], ["e", "f</w>"], ["e", "fa</w>"], ["e", "fore</w>"], ["e", "ful</w>"], ["e", "ge</w>"], ["e", "hold</w>"], ["e", "play</w>"], ["e", "si"], ["e", "th"], ["e", "tic</w>"], ["e", "ting</w>"], ["e", "um</w>"], ["e", "ve</w>"], ["ea", "ch</w>"], ["ea", "d</w>"], ["ea", "f"], ["ea", "king</w>"], ["ea", "si"], ["ea", "u</w>"], ["eaf", "ter</w>"], ["eak", "er</w>"], ["ear", "ing</w>"], ["ear", "l</w>"], ["ear", "ly</w>"], ["ear", "n</w>"], ["ear", "ned</w>"], ["ear", "nest</w>"], ["ear", "ning</w>"], ["ear", "s</w>"], ["ear", "th"], ["ear", "th</w>"], ["earli", "er</w>"], ["earli", "est</w>"], ["earth", "qu"], ["earthqu", "ake</w>"], ["easi", "ly</w>"], ["ec", "i"], ["ec", "ki</w>"], ["ec", "ra"], ["ec", "tives</w>"], ["eci", "ally</w>"], ["econom", "ic</w>"], ["econom", "y</w>"], ["ecra", "ft</w>"], ["ed", "a</w>"], ["ed", "ge</w>"], ["ed", "ges</w>"], ["ed", "o</w>"], ["ed", "oc</w>"], ["ed", "ward</w>"], ["edi", "ted</w>"], ["edi", "tor</w>"], ["educ", "ation</w>"], ["educ", "ational</w>"], ["eff", "</w>"], ["eff", "ect</w>"], ["eff", "ective</w>"], ["eff", "ectively</w>"], ["eff", "ects</w>"], ["eff", "i"], ["effi", "eld</w>"], ["effor", "t</w>"], ["effor", "ts</w>"], ["eg", "g"], ["egg", "s</w>"], ["egyp", "t</w>"], ["egypti", "an</w>"], ["egypti", "ans</w>"], ["ei", "gn</w>"], ["ei", "ro</w>"], ["ei", "ther</w>"], ["eigh", "teen</w>"], ["eigh", "th</w>"], ["el", "aborate</w>"], ["el", "der</w>"], ["el", "ds</w>"], ["el", "ected</w>"], ["el", "ection</w>"], ["el", "ement</w>"], ["el", "ements</w>"], ["el", "er</w>"], ["el", "ess</w>"], ["el", "gin</w>"], ["el", "gu"], ["el", "i</w>"], ["el", "ic</w>"], ["el", "im"], ["el", "iz"], ["el", "li"], ["el", "ody</w>"], ["el", "se</w>"], ["el", "sen</w>"], ["el", "sh</w>"], ["el", "t</w>"], ["el", "ve</w>"], ["elec", "tions</w>"], ["elec", "tr"], ["elect", "rical</w>"], ["elect", "ron"], ["electr", "ic</w>"], ["electron", "ic</w>"], ["elev", "ation</w>"], ["elev", "en"], ["elev", "en</w>"], ["eleven", "th</w>"], ["elgu", "d</w>"], ["elim", "in"], ["elimin", "ated</w>"], ["eliz", "abeth</w>"], ["ell", "blazer</w>"], ["ell", "ington</w>"], ["elli", "g"], ["ellig", "ence</w>"], ["else", "where</w>"], ["em", "barked</w>"], ["em", "ble</w>"], ["em", "e</w>"], ["em", "ia</w>"], ["em", "ies</w>"], ["em", "my</w>"], ["em", "o"], ["em", "per"], ["em", "ph"], ["emer", "ged</w>"], ["emer", "gen"], ["emergen", "cy</w>"], ["emo", "tional</w>"], ["emp", "ire</w>"], ["emp", "le</w>"], ["emper", "or</w>"], ["emph", "asis</w>"], ["emplo", "y"], ["emplo", "yed</w>"], ["employ", "ees</w>"], ["en", "countered</w>"], ["en", "couraged</w>"], ["en", "dly</w>"], ["en", "emies</w>"], ["en", "emy</w>"], ["en", "er"], ["en", "jo"], ["en", "non</w>"], ["en", "on</w>"], ["en", "ough</w>"], ["en", "ry</w>"], ["en", "s"], ["en", "sem"], ["en", "sure</w>"], ["ener", "g"], ["energ", "y</w>"], ["eng", "age</w>"], ["eng", "aged</w>"], ["eng", "agement</w>"], ["eng", "ers</w>"], ["eng", "ine</w>"], ["eng", "ines</w>"], ["eng", "l"], ["eng", "land</w>"], ["eng", "th"], ["engine", "er</w>"], ["engine", "ering</w>"], ["engine", "ers</w>"], ["engl", "ish</w>"], ["ength", "ened</w>"], ["enjo", "yed</w>"], ["ens", "land</w>"], ["ensem", "ble</w>"], ["ent", "ation</w>"], ["ent", "ers</w>"], ["ent", "o"], ["ent", "ran"], ["ent", "ry</w>"], ["ent", "y</w>"], ["enter", "ing</w>"], ["enter", "prise</w>"], ["enter", "tain"], ["entertain", "ment</w>"], ["enti", "eth</w>"], ["enti", "oned</w>"], ["enti", "re"], ["enti", "re</w>"], ["enti", "t"], ["entire", "ly</w>"], ["entit", "led</w>"], ["ento", "logy</w>"], ["entran", "ce</w>"], ["environ", "ment</w>"], ["environ", "mental</w>"], ["eo", "graph"], ["eo", "us"], ["eograph", "y</w>"], ["eous", "ly</w>"], ["ep", "ing</w>"], ["episo", "de</w>"], ["episo", "des</w>"], ["equ", "al</w>"], ["equi", "p"], ["equi", "pped</w>"], ["equi", "val"], ["equip", "ment</w>"], ["equival", "ent</w>"], ["er", "beer</w>"], ["er", "eas</w>"], ["er", "ected</w>"], ["er", "ely</w>"], ["er", "ful</w>"], ["er", "ic</w>"], ["er", "ings</w>"], ["er", "land</w>"], ["er", "ly</w>"], ["er", "nest</w>"], ["er", "set</w>"], ["ero", "gative</w>"], ["es", "cape</w>"], ["es", "caped</w>"], ["es", "cort</w>"], ["es", "h</w>"], ["es", "in"], ["es", "si"], ["es", "sions</w>"], ["es", "sive</w>"], ["es", "tim"], ["es", "us</w>"], ["esi", "</w>"], ["esin", "j"], ["esinj", "e</w>"], ["esp", "ecially</w>"], ["ess", "a</w>"], ["ess", "age</w>"], ["ess", "ary</w>"], ["ess", "ential</w>"], ["essi", "onal</w>"], ["est", "ate</w>"], ["est", "er</w>"], ["est", "ment</w>"], ["establ", "ish</w>"], ["establ", "ished</w>"], ["establ", "ishing</w>"], ["establ", "ishment</w>"], ["esti", "g"], ["esti", "mat"], ["esti", "oned</w>"], ["esti", "val</w>"], ["estig", "ation</w>"], ["estim", "ated</w>"], ["estimat", "es</w>"], ["et", "ation</w>"], ["et", "ers</w>"], ["et", "ings</w>"], ["et", "res</w>"], ["et", "ry</w>"], ["et", "ting</w>"], ["eth", "n"], ["ethn", "ic</w>"], ["eu", "ten"], ["euro", "p"], ["euro", "pe"], ["euro", "pe</w>"], ["europ", "a</w>"], ["europe", "an</w>"], ["euten", "ant</w>"], ["ev", "a</w>"], ["ev", "al</w>"], ["ev", "ans</w>"], ["ev", "en</w>"], ["ev", "ening</w>"], ["ev", "ens</w>"], ["ev", "ent</w>"], ["ev", "ents</w>"], ["ev", "il</w>"], ["ev", "in</w>"], ["ev", "ita</w>"], ["ev", "ol"], ["event", "ual</w>"], ["event", "ually</w>"], ["ever", "gl"], ["ever", "ton</w>"], ["ever", "y</w>"], ["evergl", "ades</w>"], ["every", "one</w>"], ["every", "thing</w>"], ["evi", "dence</w>"], ["evi", "dent</w>"], ["evol", "ved</w>"], ["ew", "ay</w>"], ["ew", "ed</w>"], ["ew", "ish</w>"], ["ex", "act</w>"], ["ex", "actly</w>"], ["ex", "change</w>"], ["ex", "h"], ["ex", "ist</w>"], ["ex", "it</w>"], ["ex", "pe"], ["ex", "pen"], ["ex", "po"], ["ex", "posed</w>"], ["ex", "tr"], ["ex", "tra"], ["exam", "ination</w>"], ["exam", "ple</w>"], ["exam", "ples</w>"], ["exc", "ept</w>"], ["exc", "eption</w>"], ["excav", "ation</w>"], ["excav", "ations</w>"], ["exclu", "si"], ["exclu", "sive</w>"], ["exclusi", "v"], ["exclusiv", "ely</w>"], ["exec", "ution</w>"], ["execu", "ted</w>"], ["execu", "tive</w>"], ["exh", "austed</w>"], ["exist", "ed</w>"], ["exist", "ence</w>"], ["exist", "ing</w>"], ["exist", "s</w>"], ["exp", "anded</w>"], ["exp", "ansion</w>"], ["exp", "ected</w>"], ["expe", "dition</w>"], ["expen", "sive</w>"], ["exper", "im"], ["exper", "t</w>"], ["exper", "ts</w>"], ["experi", "ence</w>"], ["experi", "enced</w>"], ["experi", "ences</w>"], ["experim", "ental</w>"], ["expl", "or"], ["expl", "ore</w>"], ["expla", "in</w>"], ["expla", "ined</w>"], ["expla", "ins</w>"], ["explor", "ation</w>"], ["expo", "sure</w>"], ["expres", "s"], ["expres", "s</w>"], ["expres", "sed</w>"], ["expres", "sion</w>"], ["express", "way</w>"], ["ext", "ent</w>"], ["ext", "in"], ["exten", "ded</w>"], ["exten", "sion</w>"], ["exten", "sive</w>"], ["extin", "ct</w>"], ["extr", "atropical</w>"], ["extra", "</w>"], ["extre", "m"], ["extre", "me</w>"], ["extrem", "ely</w>"], ["ey", "e</w>"], ["ey", "es</w>"], ["f", "air</w>"], ["f", "aith</w>"], ["f", "allen</w>"], ["f", "alling</w>"], ["f", "alls</w>"], ["f", "alse</w>"], ["f", "ame</w>"], ["f", "an</w>"], ["f", "ans</w>"], ["f", "ar</w>"], ["f", "arm</w>"], ["f", "armers</w>"], ["f", "ashion</w>"], ["f", "ast</w>"], ["f", "ate</w>"], ["f", "ect</w>"], ["f", "ection</w>"], ["f", "ell</w>"], ["f", "ellow</w>"], ["f", "elt</w>"], ["f", "er</w>"], ["f", "estival</w>"], ["f", "ill</w>"], ["f", "illed</w>"], ["f", "ine</w>"], ["f", "ish</w>"], ["f", "ishing</w>"], ["f", "itted</w>"], ["f", "la"], ["f", "lan"], ["f", "le</w>"], ["f", "lies</w>"], ["f", "light</w>"], ["f", "lights</w>"], ["f", "lo"], ["f", "low</w>"], ["f", "na</w>"], ["f", "ood</w>"], ["f", "or</w>"], ["f", "ought</w>"], ["f", "our</w>"], ["f", "ow"], ["f", "ren"], ["f", "ro"], ["f", "ron"], ["f", "ru"], ["f", "ten</w>"], ["f", "ur</w>"], ["f", "y</w>"], ["f", "ying</w>"], ["fa", "iled</w>"], ["fa", "st"], ["fa", "ster</w>"], ["fa", "ul"], ["fac", "ed</w>"], ["fac", "es</w>"], ["fac", "ing</w>"], ["fac", "t</w>"], ["fac", "tor"], ["fac", "tor</w>"], ["fac", "tors</w>"], ["facil", "ities</w>"], ["facil", "ity</w>"], ["factor", "y</w>"], ["fail", "ing</w>"], ["fail", "ure</w>"], ["fam", "il"], ["fam", "ily</w>"], ["fam", "ous</w>"], ["famil", "ies</w>"], ["fan", "i</w>"], ["fan", "t"], ["fan", "try</w>"], ["fant", "asy</w>"], ["fast", "est</w>"], ["faul", "k"], ["faulk", "ner</w>"], ["fav", "or</w>"], ["favor", "able</w>"], ["favor", "ite</w>"], ["fe", "ar</w>"], ["fe", "athers</w>"], ["fe", "ature</w>"], ["fe", "atures</w>"], ["fe", "bruary</w>"], ["fe", "e</w>"], ["fe", "ed</w>"], ["fe", "eding</w>"], ["fe", "el</w>"], ["fe", "els</w>"], ["fe", "et</w>"], ["fe", "i</w>"], ["fe", "time</w>"], ["fe", "ty</w>"], ["fe", "w"], ["fe", "w</w>"], ["fe", "y</w>"], ["featur", "ed</w>"], ["featur", "ing</w>"], ["feder", "al</w>"], ["feder", "ation</w>"], ["feder", "er</w>"], ["feel", "ing</w>"], ["feel", "ings</w>"], ["fem", "ale</w>"], ["fem", "ales</w>"], ["fer", "n"], ["fern", "andez</w>"], ["few", "er</w>"], ["ff", "</w>"], ["ff", "ic</w>"], ["ff", "les</w>"], ["fi", "elds</w>"], ["fi", "fa</w>"], ["fi", "g"], ["fi", "gh"], ["fi", "ght</w>"], ["fi", "gu"], ["fi", "res</w>"], ["fi", "ts</w>"], ["fi", "ve</w>"], ["fi", "x"], ["fic", "tion</w>"], ["fic", "tional</w>"], ["fif", "teen</w>"], ["fif", "th</w>"], ["fif", "ty</w>"], ["fig", "ure</w>"], ["figh", "ting</w>"], ["figu", "res</w>"], ["fil", "e</w>"], ["fil", "m"], ["fil", "m</w>"], ["fil", "med</w>"], ["fil", "ms</w>"], ["film", "ing</w>"], ["fin", "al</w>"], ["fin", "ale</w>"], ["fin", "ally</w>"], ["fin", "ancial</w>"], ["fin", "d</w>"], ["fin", "ding</w>"], ["fin", "ds</w>"], ["fin", "ish</w>"], ["fin", "ished</w>"], ["fin", "ishing</w>"], ["fin", "kel"], ["finkel", "ste"], ["finkelste", "in</w>"], ["fir", "e</w>"], ["fir", "ed</w>"], ["fir", "ing</w>"], ["fir", "m</w>"], ["fir", "st</w>"], ["fix", "ed</w>"], ["fl", "ag</w>"], ["fl", "agship</w>"], ["fl", "ash</w>"], ["fl", "ed</w>"], ["fl", "es</w>"], ["fl", "or"], ["fl", "ying</w>"], ["fla", "t</w>"], ["flan", "k</w>"], ["fle", "cted</w>"], ["fle", "et</w>"], ["fle", "sh</w>"], ["fle", "w</w>"], ["flo", "or</w>"], ["floo", "d</w>"], ["floo", "ding</w>"], ["flor", "i"], ["flori", "da</w>"], ["flow", "er</w>"], ["flow", "ers</w>"], ["flow", "s</w>"], ["fo", "rest</w>"], ["fo", "x"], ["fo", "x</w>"], ["foc", "us</w>"], ["foc", "used</w>"], ["foc", "using</w>"], ["fol", "k</w>"], ["fol", "low</w>"], ["follow", "ed</w>"], ["follow", "ers</w>"], ["follow", "ing</w>"], ["follow", "s</w>"], ["foo", "t</w>"], ["foot", "age</w>"], ["foot", "ball</w>"], ["for", "ce</w>"], ["for", "ced</w>"], ["for", "cements</w>"], ["for", "ces</w>"], ["for", "cing</w>"], ["for", "ma"], ["for", "tun"], ["for", "ty</w>"], ["for", "ward</w>"], ["fore", "ign</w>"], ["fore", "sts</w>"], ["fore", "ver</w>"], ["form", "al</w>"], ["form", "ally</w>"], ["form", "er</w>"], ["form", "erly</w>"], ["forma", "t</w>"], ["fortun", "e</w>"], ["foun", "d</w>"], ["foun", "dation</w>"], ["foun", "ded</w>"], ["foun", "der</w>"], ["four", "teen</w>"], ["four", "th</w>"], ["fow", "ler</w>"], ["fox", "es</w>"], ["fra", "me</w>"], ["fra", "ser</w>"], ["fra", "structure</w>"], ["fran", "ce</w>"], ["fran", "chise</w>"], ["fran", "cis</w>"], ["fran", "cisco</w>"], ["fran", "k"], ["fran", "k</w>"], ["frank", "lin</w>"], ["fre", "akum</w>"], ["fre", "derick</w>"], ["fre", "e</w>"], ["fre", "edom</w>"], ["fre", "eway</w>"], ["fre", "sh</w>"], ["fren", "ch</w>"], ["frequ", "ent</w>"], ["frequ", "ently</w>"], ["fri", "end</w>"], ["fri", "endly</w>"], ["fri", "ends</w>"], ["fro", "m</w>"], ["fron", "t</w>"], ["fru", "it</w>"], ["fu", "el</w>"], ["fu", "ture</w>"], ["ful", "l</w>"], ["fun", "</w>"], ["fun", "ction</w>"], ["fun", "ctions</w>"], ["fun", "d</w>"], ["fun", "ding</w>"], ["fun", "ds</w>"], ["fun", "gu"], ["fun", "ny</w>"], ["fungu", "s</w>"], ["fur", "t"], ["fur", "ther"], ["fur", "ther</w>"], ["furt", "ado</w>"], ["further", "more</w>"], ["g", "abbar</w>"], ["g", "acko</w>"], ["g", "adishu</w>"], ["g", "ain</w>"], ["g", "allery</w>"], ["g", "alveston</w>"], ["g", "ame</w>"], ["g", "an</w>"], ["g", "ap</w>"], ["g", "ary</w>"], ["g", "as</w>"], ["g", "ate</w>"], ["g", "ates</w>"], ["g", "athered</w>"], ["g", "by</w>"], ["g", "en</w>"], ["g", "eography</w>"], ["g", "ers</w>"], ["g", "ery</w>"], ["g", "est</w>"], ["g", "ets</w>"], ["g", "etting</w>"], ["g", "il"], ["g", "ill</w>"], ["g", "in"], ["g", "lee</w>"], ["g", "ment</w>"], ["g", "off"], ["g", "ol"], ["g", "old</w>"], ["g", "one</w>"], ["g", "or"], ["g", "ory</w>"], ["g", "un"], ["g", "un</w>"], ["g", "w"], ["ga", "elic</w>"], ["ga", "ined</w>"], ["ga", "ining</w>"], ["ga", "ve</w>"], ["gam", "eplay</w>"], ["gam", "es</w>"], ["gam", "ing</w>"], ["gar", "den</w>"], ["gar", "dens</w>"], ["gar", "dner</w>"], ["gar", "et</w>"], ["gar", "ian</w>"], ["gar", "n"], ["gar", "rison</w>"], ["garn", "ered</w>"], ["ge", "off</w>"], ["ge", "ther</w>"], ["gen", "d</w>"], ["gen", "der</w>"], ["gen", "e</w>"], ["gen", "etic</w>"], ["gen", "re</w>"], ["gen", "us</w>"], ["gener", "al</w>"], ["gener", "ally</w>"], ["gener", "als</w>"], ["gener", "ated</w>"], ["gener", "ation</w>"], ["geor", "ge</w>"], ["geor", "gi"], ["georgi", "a</w>"], ["ger", "ard</w>"], ["ger", "man</w>"], ["german", "s</w>"], ["german", "y</w>"], ["gh", "es</w>"], ["gh", "o"], ["gh", "t"], ["gho", "st</w>"], ["ght", "ing"], ["ghting", "ale</w>"], ["gi", "an</w>"], ["gi", "ant</w>"], ["gi", "ants</w>"], ["gi", "e</w>"], ["gi", "elgud</w>"], ["gi", "ft</w>"], ["gi", "ve</w>"], ["gi", "ven</w>"], ["gi", "ves</w>"], ["gi", "ving</w>"], ["gil", "bert</w>"], ["gin", "ia</w>"], ["gir", "l</w>"], ["gir", "ls</w>"], ["gl", "adstone</w>"], ["gl", "ass</w>"], ["glo", "bal</w>"], ["glo", "be</w>"], ["go", "al</w>"], ["go", "als</w>"], ["go", "at</w>"], ["go", "d</w>"], ["go", "ddess</w>"], ["go", "ds</w>"], ["go", "es</w>"], ["go", "od</w>"], ["go", "ods</w>"], ["go", "sp"], ["go", "t</w>"], ["go", "ti"], ["go", "v"], ["goff", "man</w>"], ["gol", "den</w>"], ["gor", "don</w>"], ["gosp", "el</w>"], ["goti", "ations</w>"], ["gov", "ina</w>"], ["govern", "ment</w>"], ["govern", "ments</w>"], ["govern", "or</w>"], ["gra", "ce</w>"], ["gra", "de</w>"], ["gra", "ded</w>"], ["gra", "f</w>"], ["gra", "in</w>"], ["gra", "ss</w>"], ["gra", "sses</w>"], ["gra", "tion</w>"], ["gra", "v"], ["gra", "ve</w>"], ["gra", "y</w>"], ["gradu", "ally</w>"], ["gradu", "ate</w>"], ["gram", "me</w>"], ["gram", "my</w>"], ["gramm", "ar</w>"], ["gramm", "ing</w>"], ["gran", "d</w>"], ["gran", "dfather</w>"], ["gran", "t</w>"], ["gran", "ted</w>"], ["gran", "ts</w>"], ["graph", "ics</w>"], ["grav", "ity</w>"], ["gre", "at</w>"], ["gre", "ater</w>"], ["gre", "ek</w>"], ["gre", "en</w>"], ["gre", "g</w>"], ["gre", "gory</w>"], ["gre", "w</w>"], ["gre", "y</w>"], ["great", "est</w>"], ["great", "ly</w>"], ["gro", "met"], ["gro", "unds</w>"], ["gro", "w"], ["gro", "w</w>"], ["gro", "wing</w>"], ["gro", "wn</w>"], ["gro", "ws</w>"], ["gromet", "ric"], ["grometric", "us</w>"], ["grou", "p</w>"], ["grou", "ps</w>"], ["grow", "th</w>"], ["gu", "</w>"], ["gu", "ard</w>"], ["gu", "ardian</w>"], ["gu", "ese</w>"], ["gu", "est</w>"], ["gu", "il"], ["gu", "y</w>"], ["gui", "dance</w>"], ["gui", "de</w>"], ["gui", "des</w>"], ["guil", "ty</w>"], ["guit", "ar</w>"], ["guit", "arist</w>"], ["gul", "f</w>"], ["gul", "ly</w>"], ["gun", "s</w>"], ["gw", "en</w>"], ["h", "ad</w>"], ["h", "air</w>"], ["h", "all</w>"], ["h", "and</w>"], ["h", "anded</w>"], ["h", "andled</w>"], ["h", "ands</w>"], ["h", "aps</w>"], ["h", "as</w>"], ["h", "at</w>"], ["h", "aven</w>"], ["h", "aving</w>"], ["h", "e</w>"], ["h", "eight</w>"], ["h", "ell</w>"], ["h", "ellblazer</w>"], ["h", "ence</w>"], ["h", "enry</w>"], ["h", "esh</w>"], ["h", "g</w>"], ["h", "ill</w>"], ["h", "ills</w>"], ["h", "im"], ["h", "indu"], ["h", "ington</w>"], ["h", "ired</w>"], ["h", "it"], ["h", "mon"], ["h", "ms</w>"], ["h", "n</w>"], ["h", "ong</w>"], ["h", "ou"], ["h", "ou</w>"], ["h", "ow</w>"], ["h", "ull</w>"], ["h", "us"], ["h", "y</w>"], ["h", "ys</w>"], ["ha", "el</w>"], ["ha", "ve</w>"], ["ha", "wa"], ["habit", "ants</w>"], ["habit", "at</w>"], ["habit", "ats</w>"], ["hai", "fa</w>"], ["hai", "ti"], ["hai", "ti</w>"], ["haiti", "an</w>"], ["hal", "o</w>"], ["ham", "els</w>"], ["ham", "il"], ["ham", "let</w>"], ["ham", "p"], ["hamil", "ton</w>"], ["hamp", "shire</w>"], ["hann", "a</w>"], ["hann", "ah</w>"], ["happ", "en</w>"], ["happ", "ened</w>"], ["happ", "y</w>"], ["har", "bor</w>"], ["har", "bour</w>"], ["har", "dson</w>"], ["har", "old</w>"], ["har", "rison</w>"], ["har", "ry</w>"], ["har", "t</w>"], ["hawa", "i</w>"], ["hawai", "i</w>"], ["hawai", "ian</w>"], ["he", "alth</w>"], ["he", "ar</w>"], ["hea", "t</w>"], ["hea", "ven</w>"], ["head", "ed</w>"], ["head", "ing</w>"], ["head", "quar"], ["head", "s</w>"], ["headquar", "ters</w>"], ["hear", "d</w>"], ["hear", "ing</w>"], ["hear", "t</w>"], ["hear", "ts</w>"], ["heav", "ily</w>"], ["heav", "y</w>"], ["hel", "d</w>"], ["hel", "m</w>"], ["hel", "met</w>"], ["hel", "ms</w>"], ["hel", "p</w>"], ["hel", "ped</w>"], ["hel", "ping</w>"], ["hel", "ps</w>"], ["her", "ald</w>"], ["her", "d</w>"], ["her", "g</w>"], ["her", "it"], ["her", "o"], ["her", "o</w>"], ["her", "self</w>"], ["her", "ze"], ["herit", "age</w>"], ["hero", "es</w>"], ["herze", "govina</w>"], ["hi", "bari</w>"], ["hi", "dden</w>"], ["hi", "gan</w>"], ["hi", "gh</w>"], ["hi", "m</w>"], ["hi", "o</w>"], ["hi", "p</w>"], ["hi", "s</w>"], ["hi", "t</w>"], ["hi", "ts</w>"], ["high", "er</w>"], ["high", "est</w>"], ["high", "ligh"], ["high", "light</w>"], ["high", "ly</w>"], ["high", "way</w>"], ["high", "ways</w>"], ["highligh", "ted</w>"], ["him", "self</w>"], ["hindu", "</w>"], ["histor", "ian</w>"], ["histor", "ians</w>"], ["histor", "ic</w>"], ["histor", "ical</w>"], ["histor", "ically</w>"], ["histor", "y</w>"], ["hit", "ting</w>"], ["hmon", "d</w>"], ["hn", "c</w>"], ["ho", "bbs</w>"], ["ho", "ckey</w>"], ["ho", "k"], ["ho", "lo"], ["ho", "ly</w>"], ["ho", "on</w>"], ["ho", "over</w>"], ["ho", "p</w>"], ["ho", "pe</w>"], ["ho", "ped</w>"], ["ho", "ping</w>"], ["ho", "st</w>"], ["ho", "sted</w>"], ["ho", "sti"], ["ho", "t"], ["ho", "t</w>"], ["ho", "ur</w>"], ["ho", "urs</w>"], ["hok", "ies</w>"], ["hol", "ding</w>"], ["hol", "ds</w>"], ["hol", "i"], ["hol", "ly"], ["holi", "day</w>"], ["holly", "wood</w>"], ["holo", "caust</w>"], ["hom", "e</w>"], ["hom", "er</w>"], ["hom", "es</w>"], ["hon", "or"], ["hon", "or</w>"], ["hon", "our"], ["hon", "our</w>"], ["honor", "ary</w>"], ["honour", "s</w>"], ["hor", "n"], ["hor", "n</w>"], ["hor", "r"], ["hor", "se</w>"], ["hor", "ses</w>"], ["horn", "un"], ["hornun", "g</w>"], ["horr", "or</w>"], ["hosp", "it"], ["hosp", "ital</w>"], ["hospit", "als</w>"], ["hosti", "le</w>"], ["hot", "el</w>"], ["hou", "ston</w>"], ["hous", "ed</w>"], ["hous", "ehold</w>"], ["hous", "es</w>"], ["hous", "ing</w>"], ["how", "ard</w>"], ["how", "e</w>"], ["how", "ever</w>"], ["hu", "dson</w>"], ["hu", "ge</w>"], ["hu", "ghes</w>"], ["hum", "an</w>"], ["hum", "ans</w>"], ["hum", "p"], ["hump", "ty</w>"], ["hun", "dred</w>"], ["hun", "dreds</w>"], ["hun", "garian</w>"], ["hun", "t</w>"], ["hun", "ter</w>"], ["hun", "ting</w>"], ["hurrican", "e</w>"], ["hurrican", "es</w>"], ["hus", "band</w>"], ["hy", "grometricus</w>"], ["i", "als</w>"], ["i", "bis</w>"], ["i", "daho</w>"], ["i", "ecki</w>"], ["i", "f</w>"], ["i", "fic</w>"], ["i", "finals</w>"], ["i", "fna</w>"], ["i", "gh</w>"], ["i", "k"], ["i", "oc</w>"], ["i", "ow"], ["i", "p</w>"], ["i", "ration</w>"], ["i", "res</w>"], ["i", "si"], ["i", "ther</w>"], ["i", "ts</w>"], ["i", "v</w>"], ["ib", "i</w>"], ["ic", "a</w>"], ["ic", "ester</w>"], ["ic", "h</w>"], ["ic", "ian</w>"], ["ic", "ly</w>"], ["ic", "o</w>"], ["ic", "ole</w>"], ["ici", "ans</w>"], ["ici", "de</w>"], ["ici", "ent</w>"], ["ici", "pal</w>"], ["ick", "et</w>"], ["ick", "ly</w>"], ["ick", "off</w>"], ["ide", "a</w>"], ["ide", "al</w>"], ["ide", "as</w>"], ["identi", "fied</w>"], ["identi", "fy</w>"], ["identi", "ty</w>"], ["ific", "ally</w>"], ["ik", "k</w>"], ["il", "d</w>"], ["il", "legal</w>"], ["il", "lo</w>"], ["il", "ors</w>"], ["ill", "er</w>"], ["ill", "in"], ["ill", "n"], ["ill", "u"], ["illin", "o"], ["illino", "is</w>"], ["illn", "ess</w>"], ["illu", "strated</w>"], ["im", "age</w>"], ["im", "ages</w>"], ["im", "agine</w>"], ["im", "al</w>"], ["im", "bledon</w>"], ["im", "budo</w>"], ["im", "my</w>"], ["im", "p"], ["im", "per"], ["im", "possible</w>"], ["immedi", "ate</w>"], ["immedi", "ately</w>"], ["immi", "grants</w>"], ["immi", "gration</w>"], ["imp", "act</w>"], ["imper", "ial</w>"], ["import", "ance</w>"], ["import", "ant</w>"], ["impres", "sed</w>"], ["impres", "sion</w>"], ["impro", "ve</w>"], ["impro", "ved</w>"], ["impro", "vement</w>"], ["impro", "vements</w>"], ["in", "ch</w>"], ["in", "ches</w>"], ["in", "cident</w>"], ["in", "come</w>"], ["in", "corporated</w>"], ["in", "deed</w>"], ["in", "dependence</w>"], ["in", "dependent</w>"], ["in", "dolence</w>"], ["in", "door</w>"], ["in", "ery</w>"], ["in", "fall</w>"], ["in", "fantry</w>"], ["in", "fection</w>"], ["in", "forcements</w>"], ["in", "formation</w>"], ["in", "formed</w>"], ["in", "frastructure</w>"], ["in", "habitants</w>"], ["in", "hg</w>"], ["in", "ian</w>"], ["in", "ity</w>"], ["in", "land</w>"], ["in", "nis</w>"], ["in", "side</w>"], ["in", "stance</w>"], ["in", "stru"], ["in", "sul"], ["in", "th</w>"], ["in", "um</w>"], ["inclu", "de</w>"], ["inclu", "ded</w>"], ["inclu", "des</w>"], ["inclu", "ding</w>"], ["inclu", "sion</w>"], ["incre", "ase</w>"], ["incre", "ased</w>"], ["increas", "ing"], ["increas", "ing</w>"], ["increasing", "ly</w>"], ["indi", "a</w>"], ["indi", "an</w>"], ["indi", "go</w>"], ["indic", "ate</w>"], ["indic", "ated</w>"], ["indic", "ates</w>"], ["indic", "ating</w>"], ["individu", "al</w>"], ["individu", "als</w>"], ["indu", "st"], ["indust", "ry</w>"], ["industri", "al</w>"], ["industri", "es</w>"], ["ine", "ar</w>"], ["ine", "y</w>"], ["influ", "ence</w>"], ["influ", "enced</w>"], ["influ", "ences</w>"], ["influ", "ential</w>"], ["ing", "dom</w>"], ["ing", "res</w>"], ["ini", "tial</w>"], ["initi", "ally</w>"], ["initi", "ated</w>"], ["initi", "ative</w>"], ["injur", "ed</w>"], ["injur", "ies</w>"], ["injur", "y</w>"], ["inn", "ings</w>"], ["inn", "oc"], ["innoc", "ent</w>"], ["inscrip", "tion</w>"], ["inscrip", "tions</w>"], ["insp", "iration</w>"], ["insp", "ired</w>"], ["inst", "alled</w>"], ["inst", "ead</w>"], ["institu", "te</w>"], ["institu", "tion</w>"], ["institu", "tions</w>"], ["instru", "ments</w>"], ["insul", "a</w>"], ["int", "elligence</w>"], ["int", "in</w>"], ["int", "ings</w>"], ["int", "o</w>"], ["inten", "ded</w>"], ["inten", "do</w>"], ["inten", "se</w>"], ["inten", "tion</w>"], ["intensi", "fied</w>"], ["intensi", "ty</w>"], ["inter", "action</w>"], ["inter", "actions</w>"], ["inter", "change</w>"], ["inter", "est</w>"], ["inter", "ested</w>"], ["inter", "esting</w>"], ["inter", "ests</w>"], ["inter", "ior</w>"], ["inter", "net</w>"], ["inter", "pre"], ["inter", "state</w>"], ["inter", "view</w>"], ["inter", "views</w>"], ["intern", "al</w>"], ["intern", "ational</w>"], ["interpre", "ted</w>"], ["intersec", "tion</w>"], ["intersec", "ts</w>"], ["introduc", "ed</w>"], ["introduc", "tion</w>"], ["inv", "asion</w>"], ["inv", "estigation</w>"], ["inv", "estment</w>"], ["inv", "ited</w>"], ["invol", "ved</w>"], ["invol", "vement</w>"], ["invol", "ving</w>"], ["iow", "a</w>"], ["ir", "ates</w>"], ["ir", "on</w>"], ["ir", "s</w>"], ["ir", "t</w>"], ["ire", "land</w>"], ["ire", "ments</w>"], ["iri", "sh</w>"], ["is", "a</w>"], ["is", "abella</w>"], ["is", "ation</w>"], ["is", "bn</w>"], ["is", "esi</w>"], ["is", "land</w>"], ["is", "lands</w>"], ["is", "le</w>"], ["is", "ol"], ["is", "s</w>"], ["is", "ual</w>"], ["is", "y</w>"], ["ish", "er</w>"], ["ish", "es</w>"], ["isi", "ana</w>"], ["isl", "amic</w>"], ["isol", "ated</w>"], ["isra", "el</w>"], ["isra", "eli</w>"], ["issu", "e</w>"], ["issu", "ed</w>"], ["issu", "es</w>"], ["it", "able</w>"], ["it", "alian</w>"], ["it", "aly</w>"], ["it", "an</w>"], ["it", "ary</w>"], ["it", "chcraft</w>"], ["it", "em</w>"], ["it", "ems</w>"], ["it", "self</w>"], ["it", "sun"], ["it", "z"], ["itsun", "e</w>"], ["itz", "erland</w>"], ["j", "</w>"], ["j", "ack</w>"], ["j", "ain</w>"], ["j", "am</w>"], ["j", "ardine</w>"], ["j", "ason</w>"], ["j", "ay</w>"], ["j", "azz</w>"], ["j", "ean</w>"], ["j", "ected</w>"], ["j", "eff</w>"], ["j", "esus</w>"], ["j", "ewish</w>"], ["j", "ews</w>"], ["j", "ifna</w>"], ["j", "illo</w>"], ["j", "im</w>"], ["j", "immy</w>"], ["j", "in</w>"], ["j", "on"], ["j", "on</w>"], ["j", "ones</w>"], ["j", "or</w>"], ["j", "r</w>"], ["j", "uni"], ["jac", "kets</w>"], ["jack", "ra"], ["jack", "son</w>"], ["jackra", "bbit</w>"], ["jam", "al</w>"], ["jam", "es</w>"], ["jan", "e</w>"], ["jan", "eiro</w>"], ["jan", "u"], ["janu", "ary</w>"], ["jap", "an</w>"], ["jap", "anese</w>"], ["jer", "emy</w>"], ["jer", "se"], ["jer", "us"], ["jerse", "y</w>"], ["jerus", "alem</w>"], ["jo", "b</w>"], ["jo", "bs</w>"], ["jo", "e</w>"], ["jo", "hn</w>"], ["jo", "in</w>"], ["jo", "ined</w>"], ["jo", "ining</w>"], ["jo", "int</w>"], ["jo", "se"], ["jo", "se</w>"], ["jo", "y"], ["john", "ny</w>"], ["john", "son</w>"], ["john", "ston</w>"], ["jon", "athan</w>"], ["jor", "dan</w>"], ["jor", "ity</w>"], ["jose", "ph</w>"], ["jour", "ney</w>"], ["journ", "al</w>"], ["journ", "alist</w>"], ["journ", "alists</w>"], ["joy", "ful</w>"], ["ju", "an</w>"], ["ju", "dge</w>"], ["ju", "ly</w>"], ["ju", "pit"], ["ju", "st"], ["jum", "p</w>"], ["jum", "ping</w>"], ["jun", "e</w>"], ["juni", "or</w>"], ["jupit", "er</w>"], ["jur", "chen</w>"], ["jur", "chens</w>"], ["jur", "y</w>"], ["jus", "t</w>"], ["jus", "tice</w>"], ["just", "in</w>"], ["k", "a</w>"], ["k", "aifeng</w>"], ["k", "akapo</w>"], ["k", "annada</w>"], ["k", "ate</w>"], ["k", "emia</w>"], ["k", "ent</w>"], ["k", "ers</w>"], ["k", "evin</w>"], ["k", "g</w>"], ["k", "graf</w>"], ["k", "h</w>"], ["k", "han</w>"], ["k", "ick</w>"], ["k", "ickoff</w>"], ["k", "ill</w>"], ["k", "illed</w>"], ["k", "illing</w>"], ["k", "ills</w>"], ["k", "im</w>"], ["k", "ind</w>"], ["k", "ingdom</w>"], ["k", "ings</w>"], ["k", "ish</w>"], ["k", "it</w>"], ["k", "itsune</w>"], ["k", "m</w>"], ["k", "new</w>"], ["k", "ni"], ["k", "no"], ["k", "om"], ["k", "ong</w>"], ["k", "ra"], ["k", "shire</w>"], ["k", "u</w>"], ["k", "ur"], ["kan", "g</w>"], ["ke", "amy</w>"], ["ke", "ats</w>"], ["ke", "ep</w>"], ["ke", "eping</w>"], ["ke", "es</w>"], ["ke", "ith</w>"], ["ke", "p"], ["ke", "ting</w>"], ["ke", "wise</w>"], ["ke", "ys</w>"], ["kel", "ly</w>"], ["kenne", "dy</w>"], ["kenne", "th</w>"], ["kep", "t</w>"], ["ket", "ts</w>"], ["kic", "ked</w>"], ["kic", "king</w>"], ["kil", "mer</w>"], ["kil", "om"], ["kilom", "etres</w>"], ["kn", "ow</w>"], ["kni", "ghts</w>"], ["kno", "ts</w>"], ["know", "le"], ["knowle", "dge</w>"], ["ko", "dy</w>"], ["kom", "bat</w>"], ["kore", "a</w>"], ["kore", "an</w>"], ["kra", "k</w>"], ["kur", "t</w>"], ["ky", "le</w>"], ["ky", "o</w>"], ["ky", "ra</w>"], ["ky", "ri"], ["kyri", "a</w>"], ["l", "a</w>"], ["l", "ack</w>"], ["l", "acked</w>"], ["l", "acking</w>"], ["l", "ady</w>"], ["l", "am</w>"], ["l", "ap</w>"], ["l", "ast</w>"], ["l", "ate</w>"], ["l", "ater</w>"], ["l", "atter</w>"], ["l", "borough</w>"], ["l", "bw</w>"], ["l", "ength</w>"], ["l", "ennon</w>"], ["l", "ers</w>"], ["l", "inear</w>"], ["l", "isa</w>"], ["l", "ist</w>"], ["l", "lo"], ["l", "on"], ["l", "ong</w>"], ["l", "or</w>"], ["l", "um"], ["l", "v"], ["l", "ver</w>"], ["l", "ying</w>"], ["la", "bel</w>"], ["la", "bor</w>"], ["la", "bour</w>"], ["la", "id</w>"], ["la", "ke</w>"], ["la", "kes</w>"], ["la", "sted</w>"], ["la", "w</w>"], ["la", "ws</w>"], ["la", "y</w>"], ["labor", "atory</w>"], ["lan", "caster</w>"], ["lan", "ded</w>"], ["lan", "ding</w>"], ["lan", "dings</w>"], ["lan", "e</w>"], ["lan", "es</w>"], ["land", "fall</w>"], ["land", "sc"], ["landsc", "ape</w>"], ["langu", "age</w>"], ["langu", "ages</w>"], ["langu", "edoc</w>"], ["lar", "ge</w>"], ["lar", "ry</w>"], ["larg", "ely</w>"], ["larg", "er</w>"], ["larg", "est</w>"], ["lat", "ex</w>"], ["lat", "in</w>"], ["laun", "ch</w>"], ["laun", "ched</w>"], ["law", "r"], ["law", "ton</w>"], ["law", "yer</w>"], ["lawr", "ence</w>"], ["le", "ad</w>"], ["le", "ague</w>"], ["le", "ast</w>"], ["le", "asure</w>"], ["le", "ave</w>"], ["le", "aves</w>"], ["le", "aving</w>"], ["le", "eds</w>"], ["le", "ep</w>"], ["le", "ft</w>"], ["le", "g</w>"], ["le", "gend</w>"], ["le", "icester</w>"], ["le", "igh</w>"], ["le", "on"], ["le", "t"], ["le", "tt"], ["le", "u"], ["le", "vel</w>"], ["le", "vels</w>"], ["le", "wi"], ["lead", "er</w>"], ["lead", "ers</w>"], ["lead", "ership</w>"], ["lead", "ing</w>"], ["lead", "s</w>"], ["lear", "n</w>"], ["lear", "ned</w>"], ["lear", "ning</w>"], ["leg", "acy</w>"], ["leg", "s</w>"], ["legisl", "ation</w>"], ["legisl", "ature</w>"], ["leon", "ard</w>"], ["les", "lie</w>"], ["les", "ser</w>"], ["les", "sing</w>"], ["let", "ter</w>"], ["lett", "ers</w>"], ["leu", "kemia</w>"], ["lewi", "s</w>"], ["li", "</w>"], ["li", "ao</w>"], ["li", "beral</w>"], ["li", "brary</w>"], ["li", "de</w>"], ["li", "eutenant</w>"], ["li", "fetime</w>"], ["li", "ked</w>"], ["li", "kewise</w>"], ["li", "m</w>"], ["li", "mi"], ["li", "qu"], ["li", "st"], ["li", "sted</w>"], ["li", "sts</w>"], ["li", "t</w>"], ["li", "u</w>"], ["li", "ve</w>"], ["li", "ved</w>"], ["li", "ver"], ["li", "ves</w>"], ["li", "ving</w>"], ["ligh", "tly</w>"], ["lim", "ited</w>"], ["limi", "t</w>"], ["lin", "coln</w>"], ["lin", "er</w>"], ["lin", "k</w>"], ["lin", "ked</w>"], ["liqu", "id</w>"], ["list", "ing</w>"], ["lit", "t"], ["liter", "ary</w>"], ["liter", "ature</w>"], ["litt", "le</w>"], ["liver", "pool</w>"], ["llo", "y"], ["lloy", "d</w>"], ["lo", "an</w>"], ["lo", "p"], ["lo", "s</w>"], ["lo", "se</w>"], ["lo", "sing</w>"], ["lo", "ss</w>"], ["lo", "sses</w>"], ["lo", "st</w>"], ["lo", "ve</w>"], ["lo", "ved</w>"], ["lo", "ver"], ["lo", "ver</w>"], ["loc", "al</w>"], ["loc", "ally</w>"], ["loc", "ation</w>"], ["loc", "ations</w>"], ["loc", "k</w>"], ["log", "ic</w>"], ["lon", "don</w>"], ["long", "er</w>"], ["long", "est</w>"], ["loo", "k</w>"], ["loo", "ked</w>"], ["loo", "king</w>"], ["loo", "ks</w>"], ["loo", "se</w>"], ["lop", "es</w>"], ["lor", "d</w>"], ["lor", "ds</w>"], ["lou", "d</w>"], ["lou", "is</w>"], ["lou", "isiana</w>"], ["lover", "boy</w>"], ["low", "er</w>"], ["low", "est</w>"], ["low", "ly</w>"], ["lum", "ber</w>"], ["lv", "ania</w>"], ["ly", "ric"], ["ly", "rical</w>"], ["lyric", "s</w>"], ["m", "ac</w>"], ["m", "acleod</w>"], ["m", "ale</w>"], ["m", "ales</w>"], ["m", "ap</w>"], ["m", "ar</w>"], ["m", "ass</w>"], ["m", "assachusetts</w>"], ["m", "assive</w>"], ["m", "athews</w>"], ["m", "atter</w>"], ["m", "atters</w>"], ["m", "bar</w>"], ["m", "bol</w>"], ["m", "ccall</w>"], ["m", "ccartney</w>"], ["m", "d</w>"], ["m", "elody</w>"], ["m", "en</w>"], ["m", "ention</w>"], ["m", "entioned</w>"], ["m", "erely</w>"], ["m", "essage</w>"], ["m", "i</w>"], ["m", "ill</w>"], ["m", "iller</w>"], ["m", "ills</w>"], ["m", "lb</w>"], ["m", "m</w>"], ["m", "mer</w>"], ["m", "n"], ["m", "ole</w>"], ["m", "on</w>"], ["m", "organ</w>"], ["m", "r"], ["m", "r</w>"], ["m", "tv</w>"], ["m", "un"], ["ma", "d</w>"], ["ma", "eda</w>"], ["ma", "hesh</w>"], ["ma", "il</w>"], ["ma", "in</w>"], ["ma", "jor</w>"], ["ma", "jority</w>"], ["ma", "ke</w>"], ["ma", "kes</w>"], ["ma", "king</w>"], ["ma", "ster</w>"], ["ma", "sters</w>"], ["ma", "x"], ["ma", "x</w>"], ["ma", "y</w>"], ["mach", "ine</w>"], ["mach", "inery</w>"], ["mach", "ines</w>"], ["mad", "e</w>"], ["mad", "ero</w>"], ["mad", "ison</w>"], ["mad", "on"], ["mad", "ri"], ["madon", "na</w>"], ["madri", "d</w>"], ["mag", "adheera</w>"], ["mag", "gie</w>"], ["mag", "ic</w>"], ["mag", "ical</w>"], ["magaz", "ine</w>"], ["magaz", "ines</w>"], ["main", "land</w>"], ["main", "ly</w>"], ["main", "stream</w>"], ["main", "ta"], ["main", "tain</w>"], ["main", "tained</w>"], ["mainta", "ining</w>"], ["man", "aged</w>"], ["man", "agement</w>"], ["man", "ager</w>"], ["man", "chester</w>"], ["man", "ent</w>"], ["man", "ga</w>"], ["man", "ner</w>"], ["man", "or</w>"], ["man", "ual</w>"], ["man", "y</w>"], ["mar", "ch</w>"], ["mar", "garet</w>"], ["mar", "ge</w>"], ["mar", "gin</w>"], ["mar", "ia</w>"], ["mar", "ily</w>"], ["mar", "ines</w>"], ["mar", "k</w>"], ["mar", "ket</w>"], ["mar", "keting</w>"], ["mar", "kgraf</w>"], ["mar", "king</w>"], ["mar", "ks</w>"], ["mar", "lborough</w>"], ["mar", "ry</w>"], ["mar", "s</w>"], ["mar", "tial</w>"], ["mar", "tin</w>"], ["mar", "y"], ["mari", "ana</w>"], ["mari", "o</w>"], ["marri", "age</w>"], ["marri", "ed</w>"], ["mary", "land</w>"], ["mat", "ch</w>"], ["mat", "ches</w>"], ["mat", "ely</w>"], ["mat", "t</w>"], ["mat", "the"], ["mat", "ure</w>"], ["mater", "ial</w>"], ["mater", "ials</w>"], ["matthe", "w</w>"], ["max", "imum</w>"], ["may", "a</w>"], ["may", "or</w>"], ["me", "an</w>"], ["me", "ans</w>"], ["me", "ant</w>"], ["me", "chanical</w>"], ["me", "et</w>"], ["me", "eting</w>"], ["me", "etings</w>"], ["me", "ets</w>"], ["me", "ga</w>"], ["me", "te"], ["me", "y"], ["mean", "ing</w>"], ["mean", "while</w>"], ["meas", "ur"], ["meas", "ure</w>"], ["meas", "ured</w>"], ["meas", "ures</w>"], ["measur", "ing</w>"], ["med", "al</w>"], ["med", "ical</w>"], ["medi", "a</w>"], ["medi", "eval</w>"], ["medi", "ter"], ["medi", "um</w>"], ["mediter", "ran"], ["mediterran", "ean</w>"], ["mem", "ber</w>"], ["mem", "bers</w>"], ["mem", "brane</w>"], ["mem", "ory</w>"], ["memor", "ial</w>"], ["memor", "ies</w>"], ["met", "al</w>"], ["met", "re</w>"], ["met", "res</w>"], ["mete", "or"], ["meteor", "o"], ["meteoro", "logical</w>"], ["meth", "od</w>"], ["meth", "ods</w>"], ["metro", "</w>"], ["metro", "pol"], ["metropol", "itan</w>"], ["mex", "ican</w>"], ["mex", "ico</w>"], ["mey", "erbeer</w>"], ["mi", "ami</w>"], ["mi", "ddle</w>"], ["mi", "ght</w>"], ["mi", "ke</w>"], ["mi", "th</w>"], ["mic", "hael</w>"], ["mic", "higan</w>"], ["mil", "e</w>"], ["mil", "es</w>"], ["mil", "itary</w>"], ["mil", "lion</w>"], ["min", "d</w>"], ["min", "ent</w>"], ["min", "er</w>"], ["min", "ers</w>"], ["min", "es</w>"], ["min", "imal</w>"], ["min", "imum</w>"], ["min", "nes"], ["min", "or"], ["min", "or</w>"], ["min", "ster</w>"], ["min", "t</w>"], ["min", "us</w>"], ["minist", "er</w>"], ["minist", "ers</w>"], ["minist", "ry</w>"], ["minnes", "o"], ["minneso", "ta</w>"], ["minor", "ity</w>"], ["minu", "te</w>"], ["minu", "tes</w>"], ["mis", "ed</w>"], ["mis", "s</w>"], ["mis", "sing</w>"], ["mis", "sions</w>"], ["mis", "sis"], ["mis", "sour"], ["missis", "si"], ["mississi", "pp"], ["mississipp", "i</w>"], ["missour", "i</w>"], ["mix", "ed</w>"], ["mix", "ing</w>"], ["mix", "ture</w>"], ["mn", "ants</w>"], ["mo", "bile</w>"], ["mo", "de</w>"], ["mo", "del</w>"], ["mo", "dels</w>"], ["mo", "dified</w>"], ["mo", "gadishu</w>"], ["mo", "ment</w>"], ["mo", "ments</w>"], ["mo", "mur"], ["mo", "on</w>"], ["mo", "ore</w>"], ["mo", "st"], ["mo", "ther</w>"], ["mo", "thers</w>"], ["mo", "tion</w>"], ["mo", "tor</w>"], ["mo", "u"], ["mo", "ve</w>"], ["mo", "ved</w>"], ["mo", "vement</w>"], ["mo", "vements</w>"], ["mo", "ves</w>"], ["mo", "ving</w>"], ["moder", "ate</w>"], ["moder", "n</w>"], ["molecul", "ar</w>"], ["molecul", "es</w>"], ["momur", "a</w>"], ["mon", "arch</w>"], ["mon", "ey</w>"], ["mon", "ster</w>"], ["mon", "t"], ["mon", "tan"], ["mon", "th"], ["mon", "th</w>"], ["mont", "fort</w>"], ["montan", "a</w>"], ["month", "s</w>"], ["monum", "ent</w>"], ["monum", "ents</w>"], ["mor", "al</w>"], ["mor", "ning</w>"], ["mor", "tal</w>"], ["most", "ly</w>"], ["mou", "th</w>"], ["moun", "t</w>"], ["moun", "ta"], ["moun", "tain</w>"], ["moun", "ted</w>"], ["mounta", "ins</w>"], ["movi", "e</w>"], ["movi", "es</w>"], ["mp", "h</w>"], ["mp", "ted</w>"], ["mp", "tom"], ["mptom", "s</w>"], ["mr", "s</w>"], ["mu", "ch</w>"], ["mu", "sh"], ["mul", "der</w>"], ["mul", "ti"], ["mul", "ti</w>"], ["multi", "ple</w>"], ["mun", "icipal</w>"], ["mur", "der</w>"], ["mur", "ray</w>"], ["mus", "caria</w>"], ["mus", "eum</w>"], ["mus", "ical</w>"], ["mus", "ician</w>"], ["mus", "icians</w>"], ["mus", "lim</w>"], ["mus", "t</w>"], ["mush", "room</w>"], ["my", "ren"], ["my", "self</w>"], ["my", "st"], ["myren", "e</w>"], ["myst", "ery</w>"], ["n", "adal</w>"], ["n", "ake</w>"], ["n", "am</w>"], ["n", "asa</w>"], ["n", "athan</w>"], ["n", "ation</w>"], ["n", "ational</w>"], ["n", "ations</w>"], ["n", "ative</w>"], ["n", "ature</w>"], ["n", "ave</w>"], ["n", "azi</w>"], ["n", "ba</w>"], ["n", "bc</w>"], ["n", "c</w>"], ["n", "d</w>"], ["n", "dh</w>"], ["n", "e</w>"], ["n", "el</w>"], ["n", "els</w>"], ["n", "en</w>"], ["n", "ext</w>"], ["n", "f</w>"], ["n", "g</w>"], ["n", "h</w>"], ["n", "hl</w>"], ["n", "ical</w>"], ["n", "ice</w>"], ["n", "ick</w>"], ["n", "icole</w>"], ["n", "ine</w>"], ["n", "intendo</w>"], ["n", "inth</w>"], ["n", "one</w>"], ["n", "or</w>"], ["n", "sy"], ["n", "y"], ["nam", "e</w>"], ["nam", "es</w>"], ["nam", "ese</w>"], ["nam", "ing</w>"], ["nar", "r"], ["nar", "rative</w>"], ["nar", "row</w>"], ["narr", "ator</w>"], ["nav", "al</w>"], ["nav", "arro</w>"], ["nav", "y</w>"], ["ne", "ar</w>"], ["ne", "arby</w>"], ["ne", "arly</w>"], ["ne", "ath</w>"], ["ne", "braska</w>"], ["ne", "ed</w>"], ["ne", "eded</w>"], ["ne", "eds</w>"], ["ne", "gative</w>"], ["ne", "gotiations</w>"], ["ne", "il</w>"], ["ne", "ither</w>"], ["ne", "oli"], ["ne", "ther"], ["ne", "tt"], ["ne", "ver"], ["ne", "ver</w>"], ["ne", "ws</w>"], ["nec", "essary</w>"], ["nec", "k</w>"], ["neoli", "th"], ["neolith", "ic</w>"], ["nes", "bitt</w>"], ["nes", "see</w>"], ["net", "work</w>"], ["net", "works</w>"], ["nether", "lands</w>"], ["nett", "les</w>"], ["nev", "ada</w>"], ["nev", "esinje</w>"], ["never", "th"], ["neverth", "eless</w>"], ["new", "ly</w>"], ["newsp", "aper</w>"], ["newsp", "apers</w>"], ["ni", "elsen</w>"], ["ni", "ght</w>"], ["ni", "ghtingale</w>"], ["ni", "ow"], ["niow", "iecki</w>"], ["no", "ble</w>"], ["no", "isy</w>"], ["no", "logy</w>"], ["no", "t"], ["no", "table</w>"], ["no", "te</w>"], ["no", "ted</w>"], ["no", "tes</w>"], ["no", "thing</w>"], ["no", "ting</w>"], ["no", "v"], ["no", "vel</w>"], ["no", "vels</w>"], ["nomin", "ated</w>"], ["nomin", "ation</w>"], ["nomin", "ations</w>"], ["nor", "man</w>"], ["nor", "th</w>"], ["nor", "theast</w>"], ["nor", "thern</w>"], ["nor", "way</w>"], ["nor", "we"], ["norm", "al</w>"], ["norm", "ally</w>"], ["north", "eastern</w>"], ["north", "ward</w>"], ["north", "west</w>"], ["norwe", "gian</w>"], ["not", "ably</w>"], ["nov", "ember</w>"], ["nsy", "lvania</w>"], ["nu", "clear</w>"], ["nu", "cleus</w>"], ["num", "ber</w>"], ["num", "bered</w>"], ["num", "bers</w>"], ["num", "erous</w>"], ["nur", "se</w>"], ["nur", "ser"], ["nurser", "y</w>"], ["ny", "son</w>"], ["o", "ak</w>"], ["o", "da</w>"], ["o", "daenathus</w>"], ["o", "de</w>"], ["o", "ften</w>"], ["o", "h</w>"], ["o", "hio</w>"], ["o", "il</w>"], ["o", "o</w>"], ["o", "on</w>"], ["o", "ples</w>"], ["o", "reg"], ["o", "res</w>"], ["o", "sc"], ["o", "se</w>"], ["o", "ted</w>"], ["o", "th</w>"], ["o", "ther"], ["o", "thers</w>"], ["o", "ts</w>"], ["o", "tt"], ["o", "uld</w>"], ["ob", "er</w>"], ["ob", "served</w>"], ["ob", "tain</w>"], ["ob", "tained</w>"], ["ob", "vi"], ["obj", "ect</w>"], ["obj", "ective</w>"], ["obj", "ectives</w>"], ["obj", "ects</w>"], ["observ", "ation</w>"], ["observ", "ations</w>"], ["obvi", "ous</w>"], ["oc", "cur</w>"], ["oc", "ean</w>"], ["oc", "k</w>"], ["oc", "t"], ["occa", "si"], ["occa", "sion</w>"], ["occa", "sions</w>"], ["occasi", "on"], ["occasion", "ally</w>"], ["occu", "p"], ["occu", "pi"], ["occup", "ation</w>"], ["occupi", "ed</w>"], ["occur", "red</w>"], ["occur", "ring</w>"], ["occur", "s</w>"], ["oct", "ober</w>"], ["off", "er</w>"], ["off", "ered</w>"], ["off", "ering</w>"], ["off", "erings</w>"], ["off", "ers</w>"], ["off", "ice</w>"], ["off", "s</w>"], ["off", "shore</w>"], ["offen", "se</w>"], ["offen", "sive</w>"], ["offic", "er</w>"], ["offic", "ers</w>"], ["offic", "es</w>"], ["offic", "ial</w>"], ["offici", "ally</w>"], ["offici", "als</w>"], ["ol", "ay</w>"], ["ol", "der</w>"], ["ol", "dest</w>"], ["ol", "dham</w>"], ["ol", "f</w>"], ["ol", "l</w>"], ["ol", "ution</w>"], ["oli", "vi"], ["olivi", "er</w>"], ["olymp", "ic</w>"], ["olymp", "ics</w>"], ["om", "aha</w>"], ["om", "ar</w>"], ["om", "as</w>"], ["om", "en</w>"], ["om", "ing</w>"], ["om", "s</w>"], ["om", "y</w>"], ["on", "ce</w>"], ["on", "eer</w>"], ["on", "ers</w>"], ["on", "going</w>"], ["on", "ica</w>"], ["on", "in</w>"], ["on", "line</w>"], ["on", "ly</w>"], ["on", "omy</w>"], ["on", "sor"], ["on", "wards</w>"], ["onsor", "ed</w>"], ["ont", "ario</w>"], ["op", "en</w>"], ["op", "ened</w>"], ["op", "ening</w>"], ["op", "hy</w>"], ["op", "le</w>"], ["op", "posed</w>"], ["op", "posi"], ["op", "position</w>"], ["op", "s</w>"], ["op", "tion</w>"], ["oper", "a</w>"], ["oper", "as</w>"], ["oper", "ate</w>"], ["oper", "ated</w>"], ["oper", "ates</w>"], ["oper", "ating</w>"], ["oper", "ational</w>"], ["oper", "ations</w>"], ["opini", "on</w>"], ["opini", "ons</w>"], ["oppon", "ent</w>"], ["oppon", "ents</w>"], ["opport", "un"], ["opport", "unities</w>"], ["opportun", "ity</w>"], ["opposi", "te</w>"], ["or", "ange</w>"], ["or", "bit</w>"], ["or", "chestra</w>"], ["or", "der</w>"], ["or", "dered</w>"], ["or", "dering</w>"], ["or", "ders</w>"], ["or", "ibi</w>"], ["or", "ist</w>"], ["or", "ly</w>"], ["oreg", "on</w>"], ["organ", "isation</w>"], ["organ", "ised</w>"], ["organ", "ized</w>"], ["organiz", "ation</w>"], ["organiz", "ations</w>"], ["orig", "in</w>"], ["orig", "ins</w>"], ["origin", "al</w>"], ["origin", "ally</w>"], ["origin", "ated</w>"], ["os", "lo</w>"], ["os", "ophy</w>"], ["osc", "ar</w>"], ["other", "wise</w>"], ["ott", "oman</w>"], ["ou", "ter</w>"], ["ou", "x</w>"], ["oun", "ded</w>"], ["our", "ces</w>"], ["out", "break</w>"], ["out", "side</w>"], ["out", "standing</w>"], ["over", "all</w>"], ["over", "seas</w>"], ["ow", "en</w>"], ["ow", "n</w>"], ["ow", "ned</w>"], ["ow", "ner</w>"], ["ow", "ners</w>"], ["ow", "nership</w>"], ["ox", "ford</w>"], ["ox", "y"], ["oxy", "gen</w>"], ["p", "ace</w>"], ["p", "acific</w>"], ["p", "age</w>"], ["p", "ages</w>"], ["p", "aid</w>"], ["p", "ain</w>"], ["p", "air</w>"], ["p", "airs</w>"], ["p", "akistan</w>"], ["p", "ale</w>"], ["p", "anel</w>"], ["p", "aper</w>"], ["p", "ass</w>"], ["p", "assion</w>"], ["p", "ast</w>"], ["p", "ath</w>"], ["p", "atrick</w>"], ["p", "atrol</w>"], ["p", "attycake</w>"], ["p", "ay</w>"], ["p", "edo</w>"], ["p", "eters</w>"], ["p", "ick</w>"], ["p", "ils</w>"], ["p", "ine</w>"], ["p", "ink</w>"], ["p", "irates</w>"], ["p", "leasure</w>"], ["p", "lot</w>"], ["p", "ments</w>"], ["p", "re</w>"], ["p", "rice</w>"], ["p", "tem"], ["p", "um"], ["p", "ure</w>"], ["p", "y"], ["pa", "intings</w>"], ["pa", "ul</w>"], ["pag", "an</w>"], ["pag", "anda</w>"], ["pag", "oda</w>"], ["pain", "ted</w>"], ["pain", "ting</w>"], ["pal", "ace</w>"], ["pal", "myrene</w>"], ["palest", "ine</w>"], ["palest", "inian</w>"], ["par", "ade</w>"], ["par", "allel</w>"], ["par", "amount</w>"], ["par", "ents</w>"], ["par", "is</w>"], ["par", "ish</w>"], ["par", "k</w>"], ["par", "ks</w>"], ["par", "ody</w>"], ["par", "t</w>"], ["par", "tial</w>"], ["par", "tially</w>"], ["par", "ties</w>"], ["par", "tly</w>"], ["par", "ts</w>"], ["par", "ty</w>"], ["par", "v"], ["parli", "ament</w>"], ["parli", "amentary</w>"], ["part", "ner</w>"], ["part", "ners</w>"], ["part", "nership</w>"], ["particip", "ate</w>"], ["particip", "ated</w>"], ["particul", "ar</w>"], ["particul", "arly</w>"], ["parv", "ati</w>"], ["pass", "age</w>"], ["pass", "ed</w>"], ["pass", "engers</w>"], ["pass", "es</w>"], ["pass", "ing</w>"], ["patter", "n</w>"], ["patter", "ns</w>"], ["pe", "ace</w>"], ["pe", "ated</w>"], ["pe", "ople</w>"], ["pe", "oples</w>"], ["pe", "te</w>"], ["pe", "ter</w>"], ["pea", "ch</w>"], ["pea", "k</w>"], ["pea", "ked</w>"], ["pea", "king</w>"], ["pen", "alty</w>"], ["pen", "ded</w>"], ["pen", "insula</w>"], ["pen", "n</w>"], ["pen", "nsylvania</w>"], ["per", "ceived</w>"], ["per", "cent</w>"], ["per", "centage</w>"], ["per", "fect</w>"], ["per", "form</w>"], ["per", "formed</w>"], ["per", "forming</w>"], ["per", "haps</w>"], ["per", "manent</w>"], ["per", "mission</w>"], ["per", "mitted</w>"], ["per", "si"], ["per", "son</w>"], ["per", "spec"], ["performan", "ce</w>"], ["performan", "ces</w>"], ["peri", "od</w>"], ["peri", "ods</w>"], ["pers", "onal</w>"], ["pers", "ons</w>"], ["persi", "an</w>"], ["person", "ality</w>"], ["person", "ally</w>"], ["person", "nel</w>"], ["perspec", "tive</w>"], ["ph", "ase</w>"], ["ph", "en</w>"], ["ph", "il</w>"], ["ph", "one</w>"], ["ph", "ra"], ["ph", "y</w>"], ["phil", "adelphia</w>"], ["phil", "ip</w>"], ["phil", "lies</w>"], ["phil", "osophy</w>"], ["phra", "se</w>"], ["phys", "ical</w>"], ["phys", "ics</w>"], ["pi", "ano</w>"], ["pi", "oneer</w>"], ["pi", "stol</w>"], ["pi", "t</w>"], ["pic", "ked</w>"], ["pic", "ture</w>"], ["pic", "tures</w>"], ["piec", "es</w>"], ["pilo", "t</w>"], ["pilo", "ts</w>"], ["pit", "ch</w>"], ["pit", "ched</w>"], ["pit", "cher</w>"], ["pit", "ching</w>"], ["pit", "man</w>"], ["pl", "an</w>"], ["pl", "ate</w>"], ["pl", "um</w>"], ["pl", "un"], ["pl", "us</w>"], ["pla", "in</w>"], ["pla", "ins</w>"], ["pla", "yed</w>"], ["pla", "yer</w>"], ["pla", "ying</w>"], ["pla", "ys</w>"], ["plac", "e</w>"], ["plac", "es</w>"], ["plac", "ing</w>"], ["plan", "e</w>"], ["plan", "es</w>"], ["plan", "et</w>"], ["plan", "ned</w>"], ["plan", "ning</w>"], ["plan", "s</w>"], ["plan", "t</w>"], ["plan", "ts</w>"], ["plat", "eau</w>"], ["plat", "form</w>"], ["plat", "inum</w>"], ["plat", "oon</w>"], ["play", "ers</w>"], ["play", "station</w>"], ["plun", "ketts</w>"], ["po", "</w>"], ["po", "em</w>"], ["po", "ems</w>"], ["po", "et</w>"], ["po", "etry</w>"], ["po", "ets</w>"], ["po", "hl</w>"], ["po", "or</w>"], ["po", "orly</w>"], ["po", "p</w>"], ["po", "pe</w>"], ["po", "st</w>"], ["po", "sted</w>"], ["po", "sts</w>"], ["po", "under</w>"], ["po", "unds</w>"], ["poin", "t</w>"], ["poin", "ts</w>"], ["pol", "and</w>"], ["pol", "e</w>"], ["pol", "ice</w>"], ["pol", "ish</w>"], ["pol", "l</w>"], ["poli", "tical</w>"], ["poli", "tics</w>"], ["polic", "ies</w>"], ["polic", "y</w>"], ["popul", "ar</w>"], ["popul", "arity</w>"], ["popul", "ation</w>"], ["popul", "ations</w>"], ["por", "arily</w>"], ["por", "tion</w>"], ["por", "tu"], ["port", "able</w>"], ["port", "ers</w>"], ["portra", "it</w>"], ["portra", "yed</w>"], ["portu", "guese</w>"], ["pos", "al</w>"], ["pos", "session</w>"], ["posi", "tive</w>"], ["posi", "tively</w>"], ["possi", "bility</w>"], ["possi", "bly</w>"], ["poten", "tial</w>"], ["poten", "tially</w>"], ["pow", "er</w>"], ["pow", "ered</w>"], ["pow", "erful</w>"], ["pow", "ers</w>"], ["pp", "er</w>"], ["pr", "erogative</w>"], ["pr", "y"], ["pra", "ise</w>"], ["pra", "ised</w>"], ["pra", "ising</w>"], ["prac", "tice</w>"], ["prac", "tices</w>"], ["pre", "cipitation</w>"], ["pre", "dators</w>"], ["pre", "decessor</w>"], ["pre", "dicted</w>"], ["pre", "dominantly</w>"], ["pre", "ferred</w>"], ["pre", "me</w>"], ["pre", "ston</w>"], ["pre", "t"], ["pre", "v"], ["pre", "ven"], ["pre", "y</w>"], ["pregn", "ancy</w>"], ["pregn", "ant</w>"], ["premi", "er</w>"], ["premi", "ere</w>"], ["premi", "ered</w>"], ["prepar", "ation</w>"], ["prepar", "ations</w>"], ["prepar", "e</w>"], ["prepar", "ed</w>"], ["prepar", "ing</w>"], ["pres", "ence</w>"], ["pres", "ent</w>"], ["pres", "entation</w>"], ["pres", "ented</w>"], ["pres", "ents</w>"], ["pres", "s</w>"], ["pres", "sure</w>"], ["preser", "ve</w>"], ["preser", "ved</w>"], ["presi", "dent</w>"], ["presi", "dential</w>"], ["pret", "ty</w>"], ["prev", "ent</w>"], ["preven", "ted</w>"], ["previ", "ous</w>"], ["previ", "ously</w>"], ["pri", "est</w>"], ["pri", "ests</w>"], ["pri", "marily</w>"], ["pri", "mary</w>"], ["pri", "me</w>"], ["pri", "or</w>"], ["pri", "s"], ["pri", "sing</w>"], ["pri", "son</w>"], ["pri", "v"], ["pri", "x</w>"], ["pri", "ze</w>"], ["prin", "ce</w>"], ["prin", "cess</w>"], ["prin", "cipal</w>"], ["prin", "t</w>"], ["prin", "ted</w>"], ["pris", "oners</w>"], ["priv", "ate</w>"], ["pro", "</w>"], ["pro", "bably</w>"], ["pro", "cess</w>"], ["pro", "cessing</w>"], ["pro", "duce</w>"], ["pro", "duces</w>"], ["pro", "file</w>"], ["pro", "fit</w>"], ["pro", "gramme</w>"], ["pro", "gramming</w>"], ["pro", "gress</w>"], ["pro", "ject</w>"], ["pro", "jects</w>"], ["pro", "minent</w>"], ["pro", "mised</w>"], ["pro", "mpted</w>"], ["pro", "paganda</w>"], ["pro", "per</w>"], ["pro", "posal</w>"], ["pro", "posed</w>"], ["pro", "ve</w>"], ["pro", "ved</w>"], ["pro", "visions</w>"], ["proble", "m</w>"], ["proble", "ms</w>"], ["produc", "ed</w>"], ["produc", "er</w>"], ["produc", "ers</w>"], ["produc", "ing</w>"], ["produc", "t</w>"], ["produc", "tion</w>"], ["produc", "tions</w>"], ["produc", "ts</w>"], ["prof", "essional</w>"], ["prof", "essor</w>"], ["progra", "m</w>"], ["progra", "ms</w>"], ["promo", "te</w>"], ["promo", "ted</w>"], ["promo", "tion</w>"], ["promo", "tional</w>"], ["proper", "ties</w>"], ["proper", "ty</w>"], ["prot", "agonist</w>"], ["prot", "ect</w>"], ["prot", "ected</w>"], ["prot", "ection</w>"], ["prot", "est</w>"], ["prot", "ests</w>"], ["prote", "in</w>"], ["prote", "ins</w>"], ["protest", "ant</w>"], ["protest", "ers</w>"], ["provi", "de</w>"], ["provi", "ded</w>"], ["provi", "des</w>"], ["provi", "ding</w>"], ["provin", "ce</w>"], ["provin", "cial</w>"], ["pry", "ce</w>"], ["ptem", "ber</w>"], ["pu", "pils</w>"], ["pu", "shed</w>"], ["pu", "shing</w>"], ["pu", "t</w>"], ["pu", "tation</w>"], ["pu", "tting</w>"], ["pu", "z"], ["publ", "ican</w>"], ["publ", "ication</w>"], ["publ", "ications</w>"], ["publ", "icly</w>"], ["publ", "ished</w>"], ["publ", "isher</w>"], ["publ", "ishing</w>"], ["pul", "aski</w>"], ["pul", "led</w>"], ["pum", "a</w>"], ["pun", "ishment</w>"], ["pun", "t</w>"], ["pur", "chase</w>"], ["pur", "chased</w>"], ["purpo", "se</w>"], ["purpo", "ses</w>"], ["pursu", "e</w>"], ["pursu", "it</w>"], ["puz", "z"], ["puzz", "le</w>"], ["py", "ra"], ["pyra", "mid</w>"], ["qed", "ar</w>"], ["qed", "arites</w>"], ["qu", "ality</w>"], ["qu", "e</w>"], ["qu", "estioned</w>"], ["qu", "ick</w>"], ["qu", "ickly</w>"], ["qu", "iney</w>"], ["qu", "ite</w>"], ["qu", "oted</w>"], ["quali", "fied</w>"], ["quali", "fying</w>"], ["quar", "ter"], ["quar", "ter</w>"], ["quarter", "back</w>"], ["que", "en</w>"], ["que", "ensland</w>"], ["ques", "tion</w>"], ["ques", "tions</w>"], ["r", "an</w>"], ["r", "are</w>"], ["r", "arely</w>"], ["r", "ate</w>"], ["r", "ated</w>"], ["r", "ates</w>"], ["r", "ather</w>"], ["r", "ating</w>"], ["r", "atings</w>"], ["r", "d</w>"], ["r", "hys</w>"], ["r", "ine</w>"], ["r", "one</w>"], ["r", "orist</w>"], ["r", "ur"], ["ra", "af</w>"], ["ra", "ce</w>"], ["ra", "ces</w>"], ["ra", "chel</w>"], ["ra", "dar</w>"], ["ra", "ffles</w>"], ["ra", "ia</w>"], ["ra", "id</w>"], ["ra", "il</w>"], ["ra", "infall</w>"], ["ra", "ins</w>"], ["ra", "ise</w>"], ["ra", "ised</w>"], ["ra", "ising</w>"], ["ra", "m</w>"], ["ra", "pe</w>"], ["ra", "pped</w>"], ["ra", "ys</w>"], ["radi", "ation</w>"], ["radi", "o</w>"], ["rail", "road</w>"], ["rail", "way</w>"], ["ran", "d</w>"], ["ran", "k</w>"], ["ran", "ked</w>"], ["ran", "king</w>"], ["ran", "ks</w>"], ["rang", "ers</w>"], ["rang", "es</w>"], ["rang", "ing</w>"], ["rapi", "d</w>"], ["rapi", "dly</w>"], ["re", "ach</w>"], ["re", "ached</w>"], ["re", "aches</w>"], ["re", "aching</w>"], ["re", "action</w>"], ["re", "actions</w>"], ["re", "al</w>"], ["re", "ality</w>"], ["re", "alized</w>"], ["re", "ally</w>"], ["re", "ar</w>"], ["re", "ason</w>"], ["re", "asons</w>"], ["re", "built</w>"], ["re", "commended</w>"], ["re", "connaissance</w>"], ["re", "construction</w>"], ["re", "covered</w>"], ["re", "covery</w>"], ["re", "duce</w>"], ["re", "en</w>"], ["re", "flected</w>"], ["re", "form</w>"], ["re", "forms</w>"], ["re", "ign</w>"], ["re", "ines</w>"], ["re", "inforcements</w>"], ["re", "jected</w>"], ["re", "lated</w>"], ["re", "lation</w>"], ["re", "marked</w>"], ["re", "ment</w>"], ["re", "mix</w>"], ["re", "mnants</w>"], ["re", "peated</w>"], ["re", "public</w>"], ["re", "publican</w>"], ["re", "putation</w>"], ["re", "signed</w>"], ["re", "tained</w>"], ["re", "tre"], ["re", "ts</w>"], ["re", "v"], ["re", "venue</w>"], ["read", "er</w>"], ["read", "ers</w>"], ["read", "ing</w>"], ["rebel", "lion</w>"], ["rebel", "s</w>"], ["rec", "alled</w>"], ["rec", "ent</w>"], ["rec", "ently</w>"], ["rec", "eption</w>"], ["rec", "ur"], ["recei", "ve</w>"], ["recei", "ved</w>"], ["recei", "ves</w>"], ["recei", "ving</w>"], ["recogn", "ised</w>"], ["recogn", "ition</w>"], ["recogn", "ized</w>"], ["recor", "d</w>"], ["recor", "ded</w>"], ["recor", "ding</w>"], ["recor", "dings</w>"], ["recor", "ds</w>"], ["recre", "ation</w>"], ["recre", "ational</w>"], ["recur", "ring</w>"], ["reduc", "ed</w>"], ["reduc", "ing</w>"], ["reduc", "tion</w>"], ["ref", "er</w>"], ["ref", "ers</w>"], ["ref", "used</w>"], ["refer", "ence</w>"], ["refer", "ences</w>"], ["refer", "red</w>"], ["refer", "ring</w>"], ["reg", "ard</w>"], ["regar", "ded</w>"], ["regar", "ding</w>"], ["regi", "on</w>"], ["regi", "onal</w>"], ["regi", "ons</w>"], ["regi", "st"], ["regi", "ster</w>"], ["regim", "e</w>"], ["regim", "ent</w>"], ["regim", "ents</w>"], ["regist", "ered</w>"], ["regul", "ar</w>"], ["regul", "arly</w>"], ["rela", "tions</w>"], ["rela", "tive</w>"], ["rela", "tively</w>"], ["rela", "tives</w>"], ["relation", "ship</w>"], ["relation", "ships</w>"], ["rele", "ase</w>"], ["rele", "ased</w>"], ["rele", "ases</w>"], ["releg", "ated</w>"], ["releg", "ation</w>"], ["reli", "ef</w>"], ["religi", "on</w>"], ["religi", "ous</w>"], ["rema", "in</w>"], ["rema", "ined</w>"], ["rema", "ins</w>"], ["remain", "der</w>"], ["remain", "ing</w>"], ["remo", "val</w>"], ["remo", "ve</w>"], ["remo", "ved</w>"], ["ren", "amed</w>"], ["ren", "ewed</w>"], ["rep", "air</w>"], ["rep", "airs</w>"], ["rep", "lied</w>"], ["replac", "e</w>"], ["replac", "ed</w>"], ["replac", "ement</w>"], ["replac", "ing</w>"], ["repor", "t</w>"], ["repor", "te"], ["repor", "ted</w>"], ["repor", "ter</w>"], ["repor", "ts</w>"], ["reporte", "dly</w>"], ["repres", "ent</w>"], ["repres", "ented</w>"], ["repres", "ents</w>"], ["represent", "ation</w>"], ["represent", "ative</w>"], ["represent", "atives</w>"], ["represent", "ing</w>"], ["requ", "est</w>"], ["requ", "ested</w>"], ["requ", "ire</w>"], ["requ", "ired</w>"], ["requ", "irements</w>"], ["requ", "ires</w>"], ["res", "cue</w>"], ["res", "cued</w>"], ["res", "emble</w>"], ["res", "olution</w>"], ["res", "ources</w>"], ["res", "um"], ["resear", "ch</w>"], ["resear", "chers</w>"], ["reser", "ve</w>"], ["reser", "ves</w>"], ["reser", "vo"], ["reservo", "irs</w>"], ["resi", "dence</w>"], ["resi", "dential</w>"], ["resi", "dents</w>"], ["resi", "stance</w>"], ["resp", "ect</w>"], ["resp", "ective</w>"], ["resp", "ectively</w>"], ["respon", "ded</w>"], ["respon", "se</w>"], ["respon", "ses</w>"], ["responsi", "bility</w>"], ["responsi", "ble</w>"], ["rest", "ling</w>"], ["restaur", "ant</w>"], ["restaur", "ants</w>"], ["restor", "ation</w>"], ["restor", "e</w>"], ["restor", "ed</w>"], ["restric", "ted</w>"], ["restric", "tions</w>"], ["resul", "t</w>"], ["resul", "ted</w>"], ["resul", "ting</w>"], ["resul", "ts</w>"], ["resum", "ed</w>"], ["reti", "red</w>"], ["reti", "rement</w>"], ["retre", "at</w>"], ["retur", "n</w>"], ["retur", "ned</w>"], ["retur", "ning</w>"], ["retur", "ns</w>"], ["rev", "ised</w>"], ["reve", "al</w>"], ["reve", "aled</w>"], ["reve", "als</w>"], ["revi", "ew</w>"], ["revi", "val</w>"], ["revi", "ved</w>"], ["review", "ed</w>"], ["review", "er</w>"], ["review", "ers</w>"], ["review", "s</w>"], ["revol", "u"], ["revol", "ution</w>"], ["revolu", "tion"], ["revolution", "ary</w>"], ["rho", "de</w>"], ["rho", "desian</w>"], ["rhy", "me</w>"], ["rhy", "th"], ["rhyth", "m</w>"], ["ri", "de</w>"], ["ri", "dge</w>"], ["ri", "ding</w>"], ["ri", "fle</w>"], ["ri", "fles</w>"], ["ri", "ght</w>"], ["ri", "ghts</w>"], ["ri", "hanna</w>"], ["ri", "o</w>"], ["ri", "or</w>"], ["ri", "s"], ["ri", "se</w>"], ["ri", "sing</w>"], ["ri", "tual</w>"], ["ri", "v"], ["ri", "val</w>"], ["ri", "ver</w>"], ["ri", "vers</w>"], ["ric", "h</w>"], ["ric", "hard</w>"], ["ric", "hardson</w>"], ["ric", "hmond</w>"], ["ris", "k</w>"], ["riv", "als</w>"], ["ro", "ads</w>"], ["ro", "adway</w>"], ["ro", "b</w>"], ["ro", "bert</w>"], ["ro", "berts</w>"], ["ro", "binson</w>"], ["ro", "ck</w>"], ["ro", "cks</w>"], ["ro", "cky</w>"], ["ro", "ger</w>"], ["ro", "le</w>"], ["ro", "les</w>"], ["ro", "ll</w>"], ["ro", "man</w>"], ["ro", "me</w>"], ["ro", "of</w>"], ["ro", "oms</w>"], ["ro", "ots</w>"], ["ro", "se"], ["ro", "se</w>"], ["ro", "te</w>"], ["ro", "th"], ["ro", "und</w>"], ["ro", "unds</w>"], ["ro", "wing</w>"], ["ro", "x"], ["ro", "y"], ["ro", "y</w>"], ["rol", "ler</w>"], ["rol", "ling</w>"], ["roman", "i</w>"], ["roman", "ia</w>"], ["roman", "ian</w>"], ["roman", "tic</w>"], ["ron", "dheim</w>"], ["ron", "g</w>"], ["rose", "bery</w>"], ["roth", "sch"], ["rothsch", "ild</w>"], ["rou", "te</w>"], ["rou", "tes</w>"], ["rough", "ly</w>"], ["rough", "out</w>"], ["rox", "as</w>"], ["roy", "al</w>"], ["ru", "bber</w>"], ["ru", "gby</w>"], ["ru", "sh</w>"], ["ru", "shed</w>"], ["ru", "shing</w>"], ["rul", "e</w>"], ["rul", "ed</w>"], ["rul", "er</w>"], ["rul", "es</w>"], ["rul", "ing</w>"], ["run", "</w>"], ["run", "ners</w>"], ["run", "ning</w>"], ["run", "s</w>"], ["run", "way</w>"], ["rur", "al</w>"], ["rus", "sell</w>"], ["rus", "t</w>"], ["russi", "a</w>"], ["russi", "an</w>"], ["ry", "an</w>"], ["s", "acked</w>"], ["s", "acred</w>"], ["s", "aid</w>"], ["s", "al</w>"], ["s", "ale</w>"], ["s", "ales</w>"], ["s", "am</w>"], ["s", "ame</w>"], ["s", "an</w>"], ["s", "and</w>"], ["s", "aprang</w>"], ["s", "atellite</w>"], ["s", "aturday</w>"], ["s", "aves</w>"], ["s", "ay</w>"], ["s", "b</w>"], ["s", "elling</w>"], ["s", "essions</w>"], ["s", "ex</w>"], ["s", "ic</w>"], ["s", "ings</w>"], ["s", "lam</w>"], ["s", "layer</w>"], ["s", "leep</w>"], ["s", "lide</w>"], ["s", "lightly</w>"], ["s", "lopes</w>"], ["s", "low</w>"], ["s", "lowly</w>"], ["s", "mith</w>"], ["s", "nake</w>"], ["s", "now</w>"], ["s", "ol</w>"], ["s", "ong</w>"], ["s", "ony</w>"], ["s", "q</w>"], ["s", "r</w>"], ["s", "su"], ["s", "tics</w>"], ["s", "us"], ["s", "word</w>"], ["sa", "fe</w>"], ["sa", "fety</w>"], ["sa", "iled</w>"], ["sa", "ilors</w>"], ["sa", "int</w>"], ["sa", "ku</w>"], ["sa", "ve</w>"], ["sa", "w</w>"], ["sa", "ying</w>"], ["sa", "ys</w>"], ["sal", "ary</w>"], ["sal", "mon</w>"], ["sam", "ple</w>"], ["sam", "u"], ["samu", "el</w>"], ["san", "g</w>"], ["san", "ta</w>"], ["sar", "ajevo</w>"], ["sar", "nia</w>"], ["sav", "age</w>"], ["sav", "ed</w>"], ["sc", "ale</w>"], ["sc", "attered</w>"], ["sc", "ore</w>"], ["sc", "reen</w>"], ["scen", "e</w>"], ["scen", "es</w>"], ["sch", "eme</w>"], ["schedul", "e</w>"], ["schedul", "ed</w>"], ["scho", "ol</w>"], ["scho", "ols</w>"], ["schol", "ar</w>"], ["schol", "ars</w>"], ["schol", "arship</w>"], ["sci", "ence</w>"], ["sci", "ences</w>"], ["sci", "entology</w>"], ["scienti", "fic</w>"], ["scienti", "sts</w>"], ["scor", "ed</w>"], ["scor", "er</w>"], ["scor", "ing</w>"], ["scot", "land</w>"], ["scot", "t</w>"], ["scot", "tish</w>"], ["scrip", "t</w>"], ["sculp", "ture</w>"], ["sculp", "tures</w>"], ["se", "a</w>"], ["se", "arch</w>"], ["se", "arching</w>"], ["se", "ason</w>"], ["se", "asons</w>"], ["se", "at</w>"], ["se", "ats</w>"], ["se", "attle</w>"], ["se", "ek</w>"], ["se", "em</w>"], ["se", "emed</w>"], ["se", "ems</w>"], ["se", "en</w>"], ["se", "es</w>"], ["se", "gment</w>"], ["se", "ized</w>"], ["se", "ptember</w>"], ["se", "ts</w>"], ["se", "tting</w>"], ["se", "ven"], ["se", "ven</w>"], ["sec", "tion</w>"], ["sec", "tions</w>"], ["sec", "tor</w>"], ["sec", "ur"], ["sec", "ure</w>"], ["sec", "ured</w>"], ["secon", "d</w>"], ["secon", "dary</w>"], ["secon", "ds</w>"], ["secre", "t"], ["secre", "t</w>"], ["secret", "ary</w>"], ["secur", "ity</w>"], ["see", "ing</w>"], ["see", "king</w>"], ["sel", "ect</w>"], ["sel", "ected</w>"], ["sel", "ection</w>"], ["sel", "ves</w>"], ["sem", "i</w>"], ["sem", "ifinals</w>"], ["sen", "ding</w>"], ["sen", "ior</w>"], ["sen", "se</w>"], ["sent", "ence</w>"], ["sent", "ences</w>"], ["separ", "ate</w>"], ["separ", "ated</w>"], ["sequ", "el</w>"], ["sequ", "ence</w>"], ["sequ", "ences</w>"], ["sequ", "ent</w>"], ["ser", "bs</w>"], ["ser", "ial</w>"], ["ser", "ies</w>"], ["ser", "ve</w>"], ["ser", "ves</w>"], ["ser", "vic"], ["ser", "ving</w>"], ["seri", "ous</w>"], ["seri", "ously</w>"], ["serv", "ice</w>"], ["servic", "es</w>"], ["sett", "led</w>"], ["sett", "lers</w>"], ["settle", "ment</w>"], ["settle", "ments</w>"], ["seven", "th</w>"], ["sever", "al</w>"], ["sever", "e</w>"], ["sever", "ely</w>"], ["sex", "u"], ["sex", "ual</w>"], ["sexu", "ality</w>"], ["sh", "adow</w>"], ["sh", "akespeare</w>"], ["sh", "allow</w>"], ["sh", "ape</w>"], ["sh", "aped</w>"], ["sh", "are</w>"], ["sh", "ared</w>"], ["sh", "ares</w>"], ["sh", "ark</w>"], ["sh", "e</w>"], ["sh", "ear</w>"], ["sh", "effield</w>"], ["sh", "ell</w>"], ["sh", "ells</w>"], ["sh", "er</w>"], ["sh", "irt</w>"], ["sh", "olay</w>"], ["sh", "ow</w>"], ["sh", "rine</w>"], ["sh", "u"], ["shi", "ft</w>"], ["shi", "momura</w>"], ["shi", "pments</w>"], ["shi", "pping</w>"], ["shi", "v"], ["shiv", "a</w>"], ["sho", "p</w>"], ["sho", "t</w>"], ["sho", "ts</w>"], ["sho", "ul"], ["sho", "uld</w>"], ["shoo", "t</w>"], ["shoo", "ting</w>"], ["shor", "t</w>"], ["shor", "ter</w>"], ["shor", "tly</w>"], ["shoul", "der</w>"], ["show", "ed</w>"], ["show", "ing</w>"], ["show", "n</w>"], ["show", "s</w>"], ["shu", "t</w>"], ["si", "des</w>"], ["si", "ege</w>"], ["si", "gn</w>"], ["si", "l</w>"], ["si", "lver</w>"], ["si", "oux</w>"], ["si", "r</w>"], ["si", "ster</w>"], ["si", "sters</w>"], ["si", "tes</w>"], ["si", "tting</w>"], ["si", "x</w>"], ["si", "ze</w>"], ["sign", "al</w>"], ["sign", "ing</w>"], ["sign", "s</w>"], ["signific", "ance</w>"], ["signific", "ant</w>"], ["signific", "antly</w>"], ["sim", "on</w>"], ["sim", "one</w>"], ["sim", "ple</w>"], ["sim", "ul"], ["simil", "ar</w>"], ["simil", "arities</w>"], ["simil", "arly</w>"], ["simp", "ly</w>"], ["simp", "son</w>"], ["simp", "sons</w>"], ["simul", "tan"], ["simultan", "eously</w>"], ["sin", "ai</w>"], ["sin", "ce</w>"], ["sing", "er</w>"], ["sing", "ers</w>"], ["sing", "ing</w>"], ["sing", "le</w>"], ["sing", "les</w>"], ["sis", "ler</w>"], ["situ", "ated</w>"], ["situ", "ation</w>"], ["six", "teen</w>"], ["six", "th</w>"], ["six", "ty</w>"], ["sk", "ills</w>"], ["sk", "in</w>"], ["sk", "inner</w>"], ["sk", "ull</w>"], ["sk", "y"], ["sk", "y</w>"], ["sky", "e</w>"], ["sm", "all</w>"], ["sm", "aller</w>"], ["smo", "ke</w>"], ["smo", "oth</w>"], ["so", "ft</w>"], ["so", "il</w>"], ["so", "lo</w>"], ["so", "on</w>"], ["so", "ul</w>"], ["so", "ver"], ["so", "viet</w>"], ["so", "x</w>"], ["soc", "ial</w>"], ["soc", "iety</w>"], ["sol", "ar</w>"], ["sol", "d</w>"], ["sol", "dier</w>"], ["sol", "diers</w>"], ["sol", "e</w>"], ["sol", "ely</w>"], ["sol", "id</w>"], ["sol", "ution</w>"], ["som", "ali</w>"], ["som", "alia</w>"], ["som", "e</w>"], ["som", "erset</w>"], ["some", "one</w>"], ["some", "thing</w>"], ["some", "times</w>"], ["some", "what</w>"], ["song", "s</w>"], ["song", "writer</w>"], ["sor", "a</w>"], ["sor", "raia</w>"], ["sor", "t</w>"], ["sou", "ght</w>"], ["sou", "th</w>"], ["sou", "theast</w>"], ["sou", "thern</w>"], ["soun", "d</w>"], ["soun", "ds</w>"], ["soun", "dtrack</w>"], ["sour", "ce</w>"], ["sour", "ces</w>"], ["south", "eastern</w>"], ["south", "west</w>"], ["sover", "eign</w>"], ["sp", "ace</w>"], ["sp", "ain</w>"], ["sp", "anish</w>"], ["sp", "eak</w>"], ["sp", "eaker</w>"], ["sp", "eaking</w>"], ["sp", "ell</w>"], ["sp", "end</w>"], ["sp", "ending</w>"], ["sp", "ent</w>"], ["sp", "in</w>"], ["sp", "lit</w>"], ["sp", "onsored</w>"], ["sp", "ore</w>"], ["sp", "read</w>"], ["sp", "ring</w>"], ["sp", "ur</w>"], ["spac", "ecraft</w>"], ["spac", "es</w>"], ["spac", "ing</w>"], ["spe", "ech</w>"], ["spe", "ed</w>"], ["spec", "ial</w>"], ["spec", "ific</w>"], ["spec", "ifically</w>"], ["spec", "ul"], ["specim", "en</w>"], ["specim", "ens</w>"], ["specul", "ation</w>"], ["spiri", "t</w>"], ["spiri", "tual</w>"], ["spo", "ke</w>"], ["spo", "res</w>"], ["spo", "t"], ["spo", "t</w>"], ["spo", "ts</w>"], ["spor", "t</w>"], ["spor", "ting</w>"], ["spor", "ts</w>"], ["spot", "ted</w>"], ["squ", "ad</w>"], ["squ", "adron</w>"], ["squ", "are</w>"], ["ssu", "e</w>"], ["st", "a</w>"], ["st", "able</w>"], ["st", "age</w>"], ["st", "ages</w>"], ["st", "aley</w>"], ["st", "an</w>"], ["st", "ar</w>"], ["st", "ated</w>"], ["st", "ates</w>"], ["st", "ating</w>"], ["st", "ations</w>"], ["st", "avanger</w>"], ["st", "ay</w>"], ["st", "e</w>"], ["st", "ems</w>"], ["st", "evens</w>"], ["st", "ock</w>"], ["st", "ones</w>"], ["st", "op</w>"], ["st", "opped</w>"], ["st", "ores</w>"], ["st", "rand</w>"], ["st", "range</w>"], ["sta", "dium</w>"], ["sta", "ff</w>"], ["sta", "ined</w>"], ["sta", "kes</w>"], ["sta", "yed</w>"], ["stan", "ds</w>"], ["stan", "ley</w>"], ["stan", "tial</w>"], ["stand", "ard</w>"], ["stand", "ards</w>"], ["star", "red</w>"], ["star", "ring</w>"], ["star", "s</w>"], ["star", "t</w>"], ["star", "ted</w>"], ["star", "ter</w>"], ["star", "ting</w>"], ["star", "ts</w>"], ["stat", "ement</w>"], ["stat", "ements</w>"], ["stat", "ue</w>"], ["stat", "us</w>"], ["stati", "oned</w>"], ["stati", "stics</w>"], ["ste", "am</w>"], ["ste", "el</w>"], ["ste", "fani</w>"], ["ste", "p</w>"], ["ste", "phen</w>"], ["ste", "ps</w>"], ["ste", "ve</w>"], ["ste", "war"], ["stewar", "t</w>"], ["sti", "ll</w>"], ["stitu", "te</w>"], ["stor", "e</w>"], ["stor", "ies</w>"], ["stor", "m</w>"], ["stor", "ms</w>"], ["stor", "y</w>"], ["story", "line</w>"], ["story", "lines</w>"], ["str", "ength</w>"], ["str", "engthened</w>"], ["str", "ing</w>"], ["str", "ong</w>"], ["stra", "ight</w>"], ["stra", "pping</w>"], ["strateg", "ic</w>"], ["strateg", "y</w>"], ["stre", "ak</w>"], ["stre", "ets</w>"], ["stri", "ke</w>"], ["stri", "king</w>"], ["stri", "p</w>"], ["strong", "er</w>"], ["strong", "est</w>"], ["strong", "ly</w>"], ["struc", "k</w>"], ["struc", "tural</w>"], ["struc", "tures</w>"], ["strugg", "le</w>"], ["strugg", "led</w>"], ["stu", "art</w>"], ["stu", "dent</w>"], ["stu", "dents</w>"], ["stu", "dy</w>"], ["studi", "ed</w>"], ["studi", "es</w>"], ["studi", "o</w>"], ["studi", "os</w>"], ["sty", "le</w>"], ["sty", "les</w>"], ["su", "b</w>"], ["su", "ch</w>"], ["su", "dden</w>"], ["su", "ddenly</w>"], ["su", "gar</w>"], ["su", "icide</w>"], ["su", "itable</w>"], ["su", "mmer</w>"], ["su", "preme</w>"], ["su", "stained</w>"], ["sub", "ject</w>"], ["sub", "jects</w>"], ["sub", "marine</w>"], ["sub", "mitted</w>"], ["sub", "sequent</w>"], ["sub", "sequently</w>"], ["sub", "species</w>"], ["sub", "stantial</w>"], ["sub", "stitute</w>"], ["succ", "eeded</w>"], ["succ", "ess</w>"], ["succ", "ession</w>"], ["succ", "essive</w>"], ["success", "fully</w>"], ["success", "or</w>"], ["suff", "ered</w>"], ["suff", "ering</w>"], ["suff", "icient</w>"], ["sugg", "est</w>"], ["sugg", "ested</w>"], ["sugg", "esting</w>"], ["sugg", "ests</w>"], ["sul", "t"], ["sult", "an</w>"], ["sun", "</w>"], ["sun", "day</w>"], ["sun", "g</w>"], ["sun", "k</w>"], ["sup", "er</w>"], ["sup", "port</w>"], ["sup", "porters</w>"], ["sup", "posed</w>"], ["super", "ior</w>"], ["super", "man</w>"], ["super", "natural</w>"], ["supp", "lies</w>"], ["supp", "ly</w>"], ["suppor", "ted</w>"], ["suppor", "ting</w>"], ["sur", "face</w>"], ["sur", "gery</w>"], ["sur", "prise</w>"], ["sur", "ve"], ["surren", "der</w>"], ["surren", "dered</w>"], ["surroun", "ded</w>"], ["surroun", "ding</w>"], ["surve", "y</w>"], ["survi", "val</w>"], ["survi", "ve</w>"], ["survi", "ved</w>"], ["survi", "ving</w>"], ["surviv", "or</w>"], ["surviv", "ors</w>"], ["sus", "pended</w>"], ["sw", "iss</w>"], ["sw", "itzerland</w>"], ["swe", "den</w>"], ["swe", "dish</w>"], ["swe", "et</w>"], ["sy", "dney</w>"], ["sy", "mbol</w>"], ["sy", "mptoms</w>"], ["sy", "stem</w>"], ["sy", "stems</w>"], ["syn", "agogue</w>"], ["syn", "the"], ["synthe", "sis</w>"], ["t", "actics</w>"], ["t", "ag</w>"], ["t", "ale</w>"], ["t", "ales</w>"], ["t", "all</w>"], ["t", "ape</w>"], ["t", "aries</w>"], ["t", "ask</w>"], ["t", "ell</w>"], ["t", "elling</w>"], ["t", "ells</w>"], ["t", "emple</w>"], ["t", "essa</w>"], ["t", "est</w>"], ["t", "esting</w>"], ["t", "ests</w>"], ["t", "ex</w>"], ["t", "ext</w>"], ["t", "ings</w>"], ["t", "intin</w>"], ["t", "o</w>"], ["t", "old</w>"], ["t", "oll</w>"], ["t", "one</w>"], ["t", "onin</w>"], ["t", "ons</w>"], ["t", "ony</w>"], ["t", "ook</w>"], ["t", "opped</w>"], ["t", "rick</w>"], ["t", "rondheim</w>"], ["t", "rust</w>"], ["ta", "h</w>"], ["ta", "il</w>"], ["ta", "iled</w>"], ["ta", "ke</w>"], ["ta", "kes</w>"], ["ta", "king</w>"], ["ta", "ste</w>"], ["ta", "ught</w>"], ["ta", "w"], ["ta", "x"], ["ta", "x</w>"], ["ta", "y"], ["tal", "ent</w>"], ["tal", "k</w>"], ["tal", "king</w>"], ["tan", "k</w>"], ["tan", "ks</w>"], ["targ", "et</w>"], ["targ", "ets</w>"], ["taw", "ny</w>"], ["tax", "onomy</w>"], ["tay", "lor</w>"], ["te", "am</w>"], ["te", "ammate</w>"], ["te", "ams</w>"], ["te", "ch</w>"], ["te", "ers</w>"], ["te", "eth</w>"], ["tea", "ch</w>"], ["tea", "cher</w>"], ["tea", "chers</w>"], ["tea", "ching</w>"], ["tech", "nical</w>"], ["tech", "nology</w>"], ["techniqu", "e</w>"], ["techniqu", "es</w>"], ["tel", "u"], ["tele", "graph</w>"], ["tele", "vision</w>"], ["telu", "gu</w>"], ["tem", "ples</w>"], ["tem", "po</w>"], ["tem", "porarily</w>"], ["tem", "porary</w>"], ["temper", "ature</w>"], ["temper", "atures</w>"], ["ten", "d</w>"], ["ten", "nessee</w>"], ["ten", "nis</w>"], ["ten", "nyson</w>"], ["ten", "th</w>"], ["ten", "ure</w>"], ["ter", "m</w>"], ["ter", "minus</w>"], ["ter", "ms</w>"], ["ter", "rain</w>"], ["ter", "rorist</w>"], ["territor", "ial</w>"], ["territor", "ies</w>"], ["territor", "y</w>"], ["tex", "as</w>"], ["tex", "ts</w>"], ["th", "ai</w>"], ["th", "an</w>"], ["th", "at</w>"], ["th", "e</w>"], ["th", "em</w>"], ["th", "en</w>"], ["th", "ese</w>"], ["th", "ick</w>"], ["th", "in</w>"], ["th", "ings</w>"], ["th", "ink</w>"], ["th", "inking</w>"], ["th", "is</w>"], ["th", "omas</w>"], ["th", "ose</w>"], ["th", "ough</w>"], ["th", "ought</w>"], ["th", "rone</w>"], ["th", "rough</w>"], ["th", "roughout</w>"], ["th", "row</w>"], ["th", "rowing</w>"], ["th", "us</w>"], ["the", "ater</w>"], ["the", "ir</w>"], ["the", "ory</w>"], ["the", "y</w>"], ["theat", "re</w>"], ["theat", "rical</w>"], ["them", "e</w>"], ["them", "ed</w>"], ["them", "es</w>"], ["them", "selves</w>"], ["ther", "apy</w>"], ["ther", "e</w>"], ["ther", "eafter</w>"], ["ther", "efore</w>"], ["thir", "d</w>"], ["thir", "teen</w>"], ["thir", "ty</w>"], ["thous", "and</w>"], ["thous", "ands</w>"], ["thre", "at</w>"], ["thre", "atened</w>"], ["thre", "ats</w>"], ["thre", "e</w>"], ["thre", "w</w>"], ["ti", "co</w>"], ["ti", "de</w>"], ["ti", "e</w>"], ["ti", "ed</w>"], ["ti", "gers</w>"], ["ti", "ght</w>"], ["ti", "l</w>"], ["ti", "mately</w>"], ["ti", "ms</w>"], ["ti", "p</w>"], ["ti", "ssue</w>"], ["tic", "kets</w>"], ["tim", "ate</w>"], ["tim", "ber</w>"], ["tit", "le</w>"], ["tit", "led</w>"], ["tit", "les</w>"], ["to", "day</w>"], ["to", "gether</w>"], ["to", "kyo</w>"], ["to", "m</w>"], ["to", "o</w>"], ["to", "ols</w>"], ["to", "p</w>"], ["to", "tal</w>"], ["tom", "b</w>"], ["tom", "bs</w>"], ["tom", "my</w>"], ["tor", "onto</w>"], ["tor", "pedo</w>"], ["tor", "res</w>"], ["tou", "ch</w>"], ["touchdow", "n</w>"], ["touchdow", "ns</w>"], ["tour", "</w>"], ["tour", "ed</w>"], ["tour", "ing</w>"], ["tour", "ism</w>"], ["tour", "ist</w>"], ["tour", "s</w>"], ["tournam", "ent</w>"], ["tournam", "ents</w>"], ["tow", "ard</w>"], ["tow", "ards</w>"], ["tow", "er</w>"], ["tow", "ers</w>"], ["tow", "ns</w>"], ["town", "send</w>"], ["town", "ship</w>"], ["tr", "end</w>"], ["tr", "ying</w>"], ["tra", "cks</w>"], ["tra", "de</w>"], ["tra", "ded</w>"], ["tra", "ding</w>"], ["tra", "dition</w>"], ["tra", "ditional</w>"], ["tra", "ffic</w>"], ["tra", "il</w>"], ["tra", "ils</w>"], ["tra", "in</w>"], ["tra", "ined</w>"], ["tra", "ining</w>"], ["tra", "ins</w>"], ["tra", "pped</w>"], ["tra", "v"], ["tra", "vel</w>"], ["trans", "fer</w>"], ["trans", "ferred</w>"], ["trans", "lated</w>"], ["trans", "lation</w>"], ["trans", "mission</w>"], ["transi", "t</w>"], ["transi", "ts</w>"], ["transpor", "t</w>"], ["transpor", "tation</w>"], ["transpor", "ted</w>"], ["trav", "elled</w>"], ["travel", "ed</w>"], ["travel", "ing</w>"], ["travel", "s</w>"], ["tre", "ated</w>"], ["tre", "e</w>"], ["tre", "es</w>"], ["tre", "k</w>"], ["treat", "ment</w>"], ["treat", "y</w>"], ["tri", "al</w>"], ["tri", "als</w>"], ["tri", "bes</w>"], ["tri", "ed</w>"], ["tri", "o</w>"], ["tri", "p</w>"], ["tri", "ple</w>"], ["tri", "stan</w>"], ["tribu", "taries</w>"], ["tribu", "te</w>"], ["tro", "ops</w>"], ["tro", "phy</w>"], ["tro", "pical</w>"], ["tro", "u"], ["trou", "ble</w>"], ["tru", "e</w>"], ["tru", "jillo</w>"], ["tru", "th</w>"], ["tt", "en</w>"], ["tu", "be</w>"], ["tu", "bes</w>"], ["tun", "nels</w>"], ["tur", "key</w>"], ["tur", "kish</w>"], ["tur", "ks</w>"], ["tur", "n</w>"], ["tur", "ned</w>"], ["tur", "ner</w>"], ["tur", "ning</w>"], ["tur", "ns</w>"], ["tur", "rets</w>"], ["tw", "elve</w>"], ["tw", "entieth</w>"], ["tw", "enty</w>"], ["tw", "ice</w>"], ["tw", "in</w>"], ["tw", "ins</w>"], ["tw", "o</w>"], ["typ", "e</w>"], ["typ", "es</w>"], ["typ", "hoon</w>"], ["typ", "ical</w>"], ["typ", "ically</w>"], ["u", "able</w>"], ["u", "efa</w>"], ["u", "k</w>"], ["u", "p</w>"], ["u", "pper</w>"], ["u", "prising</w>"], ["u", "sher</w>"], ["u", "sta</w>"], ["u", "tah</w>"], ["ul", "can</w>"], ["ul", "ster</w>"], ["ul", "timate</w>"], ["ul", "timately</w>"], ["ul", "y"], ["uly", "sses</w>"], ["un", "able</w>"], ["un", "cle</w>"], ["un", "clear</w>"], ["un", "ited</w>"], ["un", "known</w>"], ["un", "less</w>"], ["un", "like</w>"], ["un", "likely</w>"], ["un", "named</w>"], ["un", "successful</w>"], ["un", "teers</w>"], ["un", "til</w>"], ["un", "usual</w>"], ["under", "ground</w>"], ["under", "neath</w>"], ["under", "stand</w>"], ["under", "standing</w>"], ["under", "stood</w>"], ["under", "taken</w>"], ["under", "went</w>"], ["uni", "on</w>"], ["uni", "que</w>"], ["uni", "t</w>"], ["uni", "ts</w>"], ["univer", "sal</w>"], ["univer", "se</w>"], ["universi", "ties</w>"], ["universi", "ty</w>"], ["up", "dated</w>"], ["up", "graded</w>"], ["up", "on</w>"], ["up", "set</w>"], ["ur", "ania</w>"], ["urb", "an</w>"], ["us", "a</w>"], ["us", "age</w>"], ["us", "d</w>"], ["us", "eful</w>"], ["us", "ers</w>"], ["us", "es</w>"], ["us", "s</w>"], ["us", "ually</w>"], ["ut", "c</w>"], ["v", "an</w>"], ["v", "andernoot</w>"], ["v", "argas</w>"], ["v", "ariety</w>"], ["v", "ary</w>"], ["v", "ast</w>"], ["v", "ice</w>"], ["v", "isual</w>"], ["v", "on</w>"], ["v", "s</w>"], ["v", "ulcan</w>"], ["val", "kyria</w>"], ["val", "ley</w>"], ["val", "uable</w>"], ["val", "ue</w>"], ["val", "ues</w>"], ["val", "ve</w>"], ["vari", "ation</w>"], ["vari", "ed</w>"], ["vari", "ous</w>"], ["veg", "as</w>"], ["veg", "etation</w>"], ["vehic", "le</w>"], ["vehic", "les</w>"], ["ven", "ues</w>"], ["ven", "us</w>"], ["ver", "acruz</w>"], ["ver", "onica</w>"], ["ver", "se</w>"], ["ver", "ses</w>"], ["ver", "sion</w>"], ["ver", "sions</w>"], ["ver", "tex</w>"], ["ver", "tical</w>"], ["ver", "tices</w>"], ["ver", "y</w>"], ["vess", "el</w>"], ["vess", "els</w>"], ["vi", "a</w>"], ["vi", "i</w>"], ["vic", "inity</w>"], ["vic", "tim</w>"], ["vic", "tims</w>"], ["victor", "ia</w>"], ["victor", "ian</w>"], ["victor", "ies</w>"], ["victor", "y</w>"], ["vide", "o</w>"], ["vide", "os</w>"], ["viet", "nam</w>"], ["viet", "namese</w>"]], "vocab": ["<UNK>", "'", "'</w>", "'bri", "'brien</w>", "'d</w>", "'in</w>", "'ll</w>", "'m", "'m</w>", "'mal", "'malley</w>", "'re</w>", "'s</w>", "'t</w>", "'ve</w>", "</w>", "a", "a</w>", "ab", "abam", "abama</w>", "aband", "abandoned</w>", "abbar</w>", "abbe", "abbey</w>", "abby</w>", "abc</w>", "abell", "abella</w>", "abeth</w>", "abil", "abilities</w>", "ability</w>", "abin", "abinet</w>", "abit", "abl", "able</w>", "ably</w>", "abo", "aboard</w>", "abor", "aborate</w>", "about</w>", "above</w>", "abroad</w>", "abs", "absence</w>", "absor", "absorbed</w>", "abu</w>", "abuse</w>", "aby</w>", "ac", "ac</w>", "aca", "acade", "academ", "academic</w>", "academy</w>", "acc", "accep", "accept</w>", "acceptable</w>", "accepted</w>", "access</w>", "accident</w>", "accla", "acclaim</w>", "accompan", "accompanied</w>", "accompanying</w>", "accor", "according</w>", "accoun", "account</w>", "accounts</w>", "accur", "accurate</w>", "accused</w>", "ace</w>", "ach", "ach</w>", "ached</w>", "aches</w>", "achie", "achiev", "achieve</w>", "achieved</w>", "achievement</w>", "aching</w>", "achus", "achuset", "achusetts</w>", "aci", "acid</w>", "acids</w>", "acific</w>", "acity</w>", "ack", "ack</w>", "acked</w>", "ackground</w>", "acki", "ackie</w>", "acking</w>", "acko</w>", "acks</w>", "acle", "acleod</w>", "acous", "acoustic</w>", "acqu", "acquired</w>", "acre</w>", "acred</w>", "acres</w>", "across</w>", "acru", "acruz</w>", "act", "act</w>", "acted</w>", "acti", "actics</w>", "acting</w>", "action</w>", "actions</w>", "activ", "active</w>", "activi", "activision</w>", "activities</w>", "activity</w>", "actly</w>", "actor</w>", "actors</w>", "actress</w>", "acts</w>", "actual</w>", "actually</w>", "acu", "acute</w>", "acy", "acy</w>", "acycl", "acyclic</w>", "ad", "ad</w>", "ada</w>", "adal</w>", "adam</w>", "adams</w>", "adap", "adaptation</w>", "adapted</w>", "adcast</w>", "add</w>", "added</w>", "addi", "adding</w>", "addition", "addition</w>", "additional</w>", "additionally</w>", "address</w>", "ade</w>", "adel", "adelai", "adelaide</w>", "adelp", "adelphi", "adelphia</w>", "aders</w>", "ades</w>", "adhe", "adheera</w>", "adian</w>", "adish", "adishu</w>", "adjac", "adjacent</w>", "adly</w>", "adm", "admi", "administ", "administration</w>", "administrative</w>", "admir", "admiral</w>", "admitted</w>", "admium</w>", "ado</w>", "adop", "adopted</w>", "ador</w>", "adow</w>", "adron</w>", "ads</w>", "adstone</w>", "adul", "adult</w>", "adults</w>", "adv", "advan", "advance</w>", "advanced</w>", "advancing</w>", "advant", "advantage</w>", "advent", "adventure</w>", "adventures</w>", "adver", "adverti", "advertising</w>", "advice</w>", "advised</w>", "adway</w>", "ady</w>", "aeo", "aer", "aerial</w>", "aerith</w>", "af", "af</w>", "aff", "affairs</w>", "affected</w>", "afric", "africa</w>", "africaine</w>", "african</w>", "after", "after</w>", "aftermat", "aftermath</w>", "afterno", "afternoon</w>", "afterwards</w>", "ag", "ag</w>", "again", "again</w>", "against</w>", "agas</w>", "age</w>", "aged</w>", "agement</w>", "agen", "agency</w>", "agent</w>", "agents</w>", "ager</w>", "ages</w>", "agg", "aggres", "aggressive</w>", "agine</w>", "agle</w>", "agner</w>", "ago</w>", "agogue</w>", "agon", "agonist</w>", "agre", "agreb</w>", "agree</w>", "agreed</w>", "agreement</w>", "agric", "agricul", "agricultural</w>", "agriculture</w>", "agship</w>", "ague</w>", "agues</w>", "ah</w>", "aha</w>", "ahead</w>", "ai", "ai</w>", "aid</w>", "aif", "aifen", "aifeng</w>", "aign</w>", "ail", "ailable</w>", "aim", "aim</w>", "aimed</w>", "ain", "ain</w>", "aine</w>", "ains</w>", "air", "air</w>", "aircraft</w>", "aired</w>", "airline</w>", "airlines</w>", "airman</w>", "airport</w>", "airports</w>", "airs</w>", "ais", "aiss", "aissance</w>", "aith</w>", "aj", "ajev", "ajevo</w>", "ak", "ak</w>", "akap", "akapo</w>", "ake</w>", "aker</w>", "akesp", "akespear", "akespeare</w>", "akist", "akistan</w>", "akum</w>", "al", "al</w>", "alabama</w>", "alan</w>", "aland</w>", "alb", "alber", "albert</w>", "alberta</w>", "albu", "album", "album</w>", "albums</w>", "ald</w>", "ale</w>", "aled</w>", "alem</w>", "ales</w>", "alex", "alex</w>", "alexan", "alexander</w>", "aley</w>", "alf", "alfred</w>", "ali", "ali</w>", "alia</w>", "alian</w>", "alice</w>", "alien</w>", "aliers</w>", "alifor", "alifornia</w>", "alist</w>", "alists</w>", "ality</w>", "alive</w>", "aliz", "alized</w>", "all", "all</w>", "alla", "allah</w>", "alled</w>", "alleg", "alleged</w>", "allel</w>", "allen</w>", "aller</w>", "allery</w>", "alli", "alliance</w>", "allied</w>", "allies</w>", "alling</w>", "allmusic</w>", "allo", "allocated</w>", "allosa", "allosaur", "allosaurus</w>", "allow", "allow</w>", "allowed</w>", "allowing</w>", "allows</w>", "alls</w>", "ally</w>", "almost</w>", "alogue</w>", "alone</w>", "along", "along</w>", "alongside</w>", "already</w>", "alry</w>", "als</w>", "alse</w>", "also</w>", "alt", "altar", "altar</w>", "altarpiece</w>", "alter", "altered</w>", "altern", "alternate</w>", "alternative</w>", "alth", "alth</w>", "although</w>", "althy</w>", "alties</w>", "alty</w>", "alv", "alver", "alvert</w>", "alvest", "alveston</w>", "always</w>", "aly", "aly</w>", "alysis</w>", "am", "am</w>", "aman", "amanita</w>", "amat", "amate", "amateur</w>", "amb", "ambass", "ambassador</w>", "ame</w>", "amed</w>", "ament</w>", "amentary</w>", "amer", "americ", "america</w>", "american</w>", "americans</w>", "ami</w>", "amic</w>", "amin", "amino</w>", "aml</w>", "amm", "ammate</w>", "ammuni", "ammunition</w>", "among", "among</w>", "amongst</w>", "amoun", "amount</w>", "amounts</w>", "ams</w>", "amy</w>", "an", "an</w>", "ana</w>", "analysis</w>", "ance</w>", "ances</w>", "anci", "ancial</w>", "ancient</w>", "ancy</w>", "and", "and</w>", "anda</w>", "ande", "anded</w>", "ander", "anderers</w>", "anderno", "andernoo", "andernoot</w>", "anderson</w>", "andez</w>", "andled</w>", "andre", "andrew</w>", "ands</w>", "andy</w>", "anel</w>", "anese</w>", "ang", "ange</w>", "angel", "angeles</w>", "angelou</w>", "anger</w>", "angerous</w>", "angle</w>", "anglo</w>", "angry</w>", "ania</w>", "anical</w>", "anim", "animal</w>", "animals</w>", "animated</w>", "animation</w>", "anime</w>", "anish</w>", "anist", "aniston</w>", "anity</w>", "ann", "ann</w>", "annada</w>", "anne</w>", "annel</w>", "anni", "anniver", "annivers", "anniversary</w>", "anno", "announ", "announc", "announced</w>", "announcement</w>", "annual</w>", "annually</w>", "anny</w>", "ano</w>", "anon", "anony", "anonymo", "anonymous</w>", "another</w>", "ans</w>", "ansion</w>", "ant</w>", "anted</w>", "anth", "anthem</w>", "anthony</w>", "anti", "anti</w>", "antimon", "antimony</w>", "antly</w>", "ants</w>", "any", "any</w>", "anyone</w>", "anything</w>", "anz", "anzac</w>", "anzi", "anzibar</w>", "ao</w>", "ap", "ap</w>", "apart</w>", "ape</w>", "aped</w>", "aper</w>", "apers</w>", "app", "appar", "apparent</w>", "apparently</w>", "appe", "appeal</w>", "appear", "appear</w>", "appearance</w>", "appearances</w>", "appeared</w>", "appearing</w>", "appears</w>", "appl", "apple", "applewhite</w>", "application</w>", "applications</w>", "applied</w>", "appo", "appoint", "appointed</w>", "appointment</w>", "appro", "approach</w>", "approached</w>", "approaches</w>", "approaching</w>", "appropri", "appropriate</w>", "approval</w>", "approved</w>", "approx", "approxim", "approximately</w>", "apran", "aprang</w>", "apri", "april</w>", "aps</w>", "apy</w>", "ar", "ar</w>", "arab", "arab</w>", "arabic</w>", "arabs</w>", "arby</w>", "arc</w>", "arch", "arch</w>", "archaeo", "archaeolo", "archaeolog", "archaeologi", "archaeological</w>", "archaeologist</w>", "archaeologists</w>", "archaeology</w>", "archbishop</w>", "archer</w>", "arching</w>", "archit", "architec", "architect</w>", "architectural</w>", "architecture</w>", "ard", "ard</w>", "ardian</w>", "ardine</w>", "ards</w>", "are", "are</w>", "area</w>", "areas</w>", "ared</w>", "arely</w>", "aren", "arena</w>", "ares</w>", "aret</w>", "arg", "argas</w>", "argent", "argentina</w>", "argentine</w>", "argu", "argued</w>", "argues</w>", "arguing</w>", "argum", "argument</w>", "ari", "aries</w>", "ariety</w>", "arily</w>", "aring</w>", "ario</w>", "arist</w>", "arit", "arites</w>", "arities</w>", "arity</w>", "ariz", "arizon", "arizona</w>", "ark", "ark</w>", "arkansas</w>", "arkson</w>", "arly</w>", "arm", "arm</w>", "armament</w>", "armed</w>", "armers</w>", "armies</w>", "armo", "armor", "armor</w>", "armored</w>", "armoured</w>", "arms</w>", "army</w>", "aroun", "around</w>", "arrang", "arranged</w>", "arrangement</w>", "arrangements</w>", "arre", "arrest</w>", "arrested</w>", "arri", "arrival</w>", "arrive</w>", "arrived</w>", "arriving</w>", "arro</w>", "ars</w>", "arsen", "arsenal</w>", "arship</w>", "art", "art</w>", "arth", "arthur</w>", "arti", "artic", "article</w>", "articles</w>", "artific", "artificial</w>", "artil", "artill", "artillery</w>", "artis", "artist</w>", "artistic</w>", "artists</w>", "arts</w>", "artwork</w>", "ary</w>", "as", "as</w>", "asa</w>", "ase</w>", "ased</w>", "ases</w>", "ash", "ash</w>", "ashi", "ashion</w>", "ashore</w>", "asi", "asia</w>", "asian</w>", "aside</w>", "asion</w>", "asis</w>", "ask</w>", "asked</w>", "aski</w>", "asking</w>", "asks</w>", "ason</w>", "asons</w>", "asp", "aspect</w>", "aspects</w>", "ass", "ass</w>", "assachusetts</w>", "assass", "assassination</w>", "assaul", "assault</w>", "assem", "assembl", "assembled</w>", "assembly</w>", "assi", "assigned</w>", "assion</w>", "assist</w>", "assistan", "assistance</w>", "assistant</w>", "assisted</w>", "assive</w>", "assoc", "associ", "associated</w>", "association</w>", "assu", "assumed</w>", "ast", "ast</w>", "astal</w>", "aster</w>", "astero", "asteroid</w>", "aston</w>", "asty</w>", "asure</w>", "asy</w>", "at", "at</w>", "ate</w>", "ated</w>", "ateg", "atell", "atellite</w>", "ately</w>", "aten</w>", "atened</w>", "ater</w>", "ates</w>", "atever</w>", "ath", "ath</w>", "athan</w>", "athens</w>", "ather</w>", "athered</w>", "athers</w>", "athews</w>", "athle", "athlete</w>", "athletes</w>", "athletic</w>", "athletics</w>", "aths</w>", "athus</w>", "ati", "ati</w>", "atic</w>", "ating</w>", "atings</w>", "ation</w>", "ational</w>", "ations</w>", "ative</w>", "atives</w>", "atl</w>", "atlan", "atlanta</w>", "atlantic</w>", "atmo", "atmosp", "atmosphere</w>", "aton</w>", "ator</w>", "atory</w>", "atp</w>", "atrick</w>", "atro", "atrol</w>", "atropical</w>", "ats</w>", "att", "atta", "attached</w>", "attack</w>", "attacked</w>", "attacking</w>", "attacks</w>", "attained</w>", "attemp", "attempt</w>", "attempted</w>", "attempting</w>", "attempts</w>", "attend</w>", "attended</w>", "attention</w>", "atter", "atter</w>", "attered</w>", "atters</w>", "atti", "attitu", "attitude</w>", "attle</w>", "attor", "attorney</w>", "attra", "attracted</w>", "attributed</w>", "atty", "attycake</w>", "atur", "atural</w>", "aturday</w>", "ature</w>", "atures</w>", "au", "au</w>", "auburn</w>", "audi", "audience</w>", "audiences</w>", "audio</w>", "aug", "augh", "aught</w>", "augus", "august</w>", "aul", "ause</w>", "aust", "austed</w>", "austr", "australi", "australia</w>", "australian</w>", "australians</w>", "austri", "austrian</w>", "austro</w>", "aut", "auth", "author", "author</w>", "authorities</w>", "authority</w>", "authorized</w>", "authors</w>", "autum", "autumn</w>", "av", "available</w>", "avalry</w>", "avanger</w>", "ave</w>", "aven", "aven</w>", "avenue</w>", "aver", "average</w>", "aves</w>", "avi", "aviation</w>", "aving</w>", "avo", "avoid</w>", "aw</w>", "awar", "award</w>", "awarded</w>", "awards</w>", "aware</w>", "awaren", "awareness</w>", "away</w>", "ay</w>", "ayed</w>", "az", "azi</w>", "azz</w>", "b", "b</w>", "ba</w>", "bably</w>", "baby</w>", "back</w>", "backed</w>", "background</w>", "backing</w>", "bad</w>", "badly</w>", "baker</w>", "bal", "bal</w>", "balance</w>", "bald</w>", "ball</w>", "ballad</w>", "balls</w>", "baltim", "baltimore</w>", "ban", "band</w>", "bands</w>", "bank", "bank</w>", "banks</w>", "banksi", "banksia</w>", "banned</w>", "bar", "bar</w>", "bard", "bardment</w>", "bari</w>", "barked</w>", "barker</w>", "barri", "barrier</w>", "barrow</w>", "barry</w>", "bart</w>", "bas", "base", "base</w>", "baseball</w>", "based</w>", "basement</w>", "bases</w>", "basic</w>", "basin</w>", "basis</w>", "basket", "basketball</w>", "bass</w>", "bat", "bat</w>", "bate</w>", "bath</w>", "bats", "batsm", "batsman</w>", "batsmen</w>", "batt", "battali", "battalion</w>", "battalions</w>", "batter", "batteries</w>", "battery</w>", "batting</w>", "battle", "battle</w>", "battlefield</w>", "battles</w>", "battleship</w>", "battleships</w>", "bay</w>", "bbc</w>", "bbed</w>", "bber</w>", "bbit</w>", "bbs</w>", "bc</w>", "bce</w>", "be", "be</w>", "beach</w>", "beam</w>", "bean</w>", "bear</w>", "bearing</w>", "bears</w>", "beat</w>", "beaten</w>", "beating</w>", "beats</w>", "beau", "beauti", "beautiful</w>", "beauty</w>", "bec", "became</w>", "because</w>", "becom", "become</w>", "becomes</w>", "becoming</w>", "bed", "bed</w>", "bedell</w>", "been</w>", "beer</w>", "beet", "beeton</w>", "before</w>", "beg", "began</w>", "begin</w>", "beginning</w>", "begins</w>", "begun</w>", "beh", "beha", "behalf</w>", "behavi", "behavior</w>", "behaviour</w>", "behind</w>", "being</w>", "beings</w>", "bel", "bel</w>", "belgi", "belgian</w>", "belgium</w>", "belie", "belief", "belief</w>", "beliefs</w>", "believ", "believe</w>", "believed</w>", "believes</w>", "believing</w>", "bell</w>", "belong", "belonging</w>", "below</w>", "belt</w>", "ben", "ben</w>", "bene", "benefit</w>", "benjam", "benjamin</w>", "bennet", "bennett</w>", "ber", "ber</w>", "beral</w>", "bered</w>", "berh", "berhtw", "berhtwald</w>", "berlin</w>", "bers</w>", "bert</w>", "bertin</w>", "berts</w>", "bery</w>", "bes</w>", "best</w>", "bet", "bet</w>", "better</w>", "betwe", "between</w>", "bey", "beyon", "beyonc</w>", "beyond</w>", "bi", "bia</w>", "bibl", "bible</w>", "biblical</w>", "bid</w>", "bidden", "biddenden</w>", "big</w>", "bigg", "biggest</w>", "bil", "bile</w>", "bility</w>", "bill", "bill</w>", "billboard</w>", "billion</w>", "bills</w>", "billy</w>", "bin", "bing</w>", "binson</w>", "bio", "biograph", "biographer</w>", "biography</w>", "biological</w>", "bir", "bir</w>", "bird</w>", "birds</w>", "birm", "birming", "birmingh", "birmingham</w>", "birth", "birth</w>", "birthday</w>", "bis", "bis</w>", "bisho", "bishop</w>", "bishops</w>", "bit", "bit</w>", "bitt</w>", "bl", "bla", "black</w>", "blackie</w>", "blacks</w>", "blaz", "blazer</w>", "ble", "ble</w>", "bledon</w>", "blin</w>", "bloc", "block</w>", "blocked</w>", "blocks</w>", "bloo", "blood</w>", "blow</w>", "blu</w>", "blue</w>", "blues</w>", "bly</w>", "bn</w>", "bo", "board</w>", "boat</w>", "boats</w>", "bob</w>", "bodies</w>", "body", "body</w>", "bodyline</w>", "boise</w>", "bol</w>", "bom", "bomb</w>", "bombardment</w>", "bombing</w>", "bombs</w>", "bon", "bond</w>", "bone</w>", "bones</w>", "bono</w>", "boo", "book</w>", "books</w>", "boom</w>", "bor", "bor</w>", "border</w>", "borders</w>", "born</w>", "borough</w>", "boss</w>", "boston</w>", "both</w>", "bott", "bottom</w>", "bought</w>", "boun", "bound", "bound</w>", "boundaries</w>", "boundary</w>", "bour</w>", "bow", "bow</w>", "bowl</w>", "bowling</w>", "box", "box</w>", "boxing</w>", "boy</w>", "boys</w>", "br", "bra", "bra</w>", "braathens</w>", "bracel", "bracelet</w>", "brad", "bradford</w>", "bradman</w>", "bradstreet</w>", "brain</w>", "bran", "branch</w>", "brand</w>", "brane</w>", "brary</w>", "brask", "braska</w>", "brated</w>", "braz", "brazil</w>", "bre", "brea", "break</w>", "breaking</w>", "breaks</w>", "breed</w>", "breeding</w>", "breth", "brethren</w>", "bri", "brian</w>", "brick</w>", "brid", "bridge</w>", "bridges</w>", "brie", "brief</w>", "briefly</w>", "brig", "briga", "brigade</w>", "brigades</w>", "brigadier</w>", "brigg", "briggs</w>", "bright</w>", "bril", "brilli", "brilliant</w>", "bring", "bring</w>", "bringing</w>", "bristol</w>", "britain</w>", "british</w>", "bro", "broad</w>", "broadcast</w>", "broadway</w>", "broke</w>", "broken</w>", "bron", "bronze</w>", "broo", "brooks</w>", "brother</w>", "brothers</w>", "brought</w>", "brown</w>", "bru", "bruary</w>", "bs</w>", "bsite</w>", "bt</w>", "bu", "bud", "budget</w>", "budo</w>", "buil", "build</w>", "building</w>", "buildings</w>", "built</w>", "bul", "bull</w>", "bulls</w>", "buo", "buoys</w>", "bur", "bure", "bureau</w>", "burial</w>", "buried</w>", "burn</w>", "burned</w>", "burning</w>", "burns</w>", "bury</w>", "bus", "bus</w>", "bush</w>", "busin", "business", "business</w>", "businesses</w>", "but</w>", "buted</w>", "buy</w>", "bw</w>", "by</w>", "c", "c</w>", "ca", "ca</w>", "cabinet</w>", "cade", "cadets</w>", "cadmium</w>", "caes", "caesar</w>", "cake</w>", "california</w>", "call</w>", "called</w>", "calling</w>", "calls</w>", "calvert</w>", "cam", "cambridge</w>", "came</w>", "camera</w>", "camp", "camp</w>", "campaign</w>", "campbell</w>", "camps</w>", "campus</w>", "can", "can</w>", "canada</w>", "canadian</w>", "canal</w>", "canals</w>", "canc", "cancelled</w>", "cancer</w>", "candid", "candidate</w>", "candidates</w>", "cannot</w>", "canon</w>", "canter", "canterbury</w>", "cantre", "cantrell</w>", "cany", "canyon</w>", "cap", "cap</w>", "capable</w>", "capacity</w>", "cape</w>", "caped</w>", "capital</w>", "captain</w>", "captur", "capture</w>", "captured</w>", "capturing</w>", "car", "car</w>", "card", "card</w>", "cardiff", "cardiff</w>", "cardin", "cardinal</w>", "cards</w>", "care</w>", "career</w>", "carey</w>", "cargo</w>", "caria</w>", "carib", "caribbean</w>", "carl</w>", "carm", "carmel</w>", "carol", "carol</w>", "carolina</w>", "carp", "carpenter</w>", "carr", "carre</w>", "carri", "carried</w>", "carries</w>", "carry</w>", "carrying</w>", "cars</w>", "carter</w>", "carved</w>", "cas", "case</w>", "cases</w>", "cash</w>", "cast", "cast</w>", "caster</w>", "casting</w>", "castle</w>", "casu", "casualties</w>", "cat", "cat</w>", "catch</w>", "cate", "catech", "catechism</w>", "categ", "categor", "categories</w>", "category</w>", "cater</w>", "cath", "cathed", "cathedr", "cathedral</w>", "cathol", "catholic</w>", "catholics</w>", "cattle</w>", "caught</w>", "caus", "cause</w>", "caused</w>", "causes</w>", "causing</w>", "caust</w>", "cavalry</w>", "cave</w>", "caves</w>", "cbs</w>", "cc", "ccall</w>", "ccar", "ccart", "ccartney</w>", "cd</w>", "ce</w>", "ced</w>", "cei", "ceived</w>", "cel", "cele", "celebrated</w>", "cell</w>", "cells</w>", "celtic</w>", "cem", "ceme", "cements</w>", "cemeter", "cemetery</w>", "cen", "censu", "census</w>", "cent", "cent</w>", "centage</w>", "center</w>", "centered</w>", "centers</w>", "centr", "central</w>", "centrated</w>", "centration</w>", "centre</w>", "centur", "centuries</w>", "century</w>", "cer", "cerem", "ceremony</w>", "ceres</w>", "certain", "certain</w>", "certainly</w>", "certi", "certified</w>", "ces</w>", "cess", "cess</w>", "cessing</w>", "ch", "ch</w>", "chagas</w>", "chain</w>", "chains</w>", "chair</w>", "chairman</w>", "chall", "challen", "challeng", "challenge</w>", "challenging</w>", "cham", "chamber</w>", "champi", "champion", "champion</w>", "champions</w>", "championship</w>", "championships</w>", "chance</w>", "chang", "change</w>", "changed</w>", "changes</w>", "changing</w>", "chanical</w>", "channel</w>", "chap", "chapel</w>", "chapter</w>", "chapters</w>", "char", "charac", "character", "character</w>", "characteris", "characteristic</w>", "characteristics</w>", "characterized</w>", "characters</w>", "charge</w>", "charged</w>", "charges</w>", "charity</w>", "charles</w>", "charlie</w>", "charlo", "charlot", "charlotte</w>", "charm", "charmbracelet</w>", "chart</w>", "charted</w>", "charter</w>", "charts</w>", "chase</w>", "chased</w>", "chcraft</w>", "chdow", "ched</w>", "chel</w>", "chelse", "chelsea</w>", "chem", "chemical</w>", "chen</w>", "chens</w>", "cher</w>", "chers</w>", "ches</w>", "chess</w>", "chest", "chester</w>", "chestra</w>", "chev", "chevaliers</w>", "chic", "chicago</w>", "chicks</w>", "chie", "chief</w>", "chil", "child", "child</w>", "childho", "childhood</w>", "children</w>", "chin", "china</w>", "chinese</w>", "ching</w>", "chise</w>", "cho", "choice</w>", "choir</w>", "choo", "choose</w>", "chor", "chorus</w>", "chose</w>", "chosen</w>", "chri", "chris</w>", "christ", "christ</w>", "christi", "christi</w>", "christian</w>", "christianity</w>", "christians</w>", "christine</w>", "christma", "christmas</w>", "christop", "christopher</w>", "chron", "chronic", "chronicle</w>", "chronicles</w>", "chur", "church</w>", "churches</w>", "ci", "cial</w>", "cident</w>", "cil</w>", "cin", "cinem", "cinema</w>", "cing</w>", "cipal</w>", "cipit", "cipitation</w>", "cir", "circle</w>", "circu", "circuit</w>", "circul", "circulation</w>", "circum", "circumstances</w>", "cis", "cis</w>", "cisco</w>", "cited</w>", "citi", "cities</w>", "citing</w>", "citiz", "citizens</w>", "city</w>", "civ", "civil", "civil</w>", "civilian</w>", "civilians</w>", "ck", "ck</w>", "ckey</w>", "cks</w>", "cky</w>", "cl", "cla", "claim", "claim</w>", "claimed</w>", "claiming</w>", "claims</w>", "clark</w>", "clarkson</w>", "class", "class</w>", "classes</w>", "classi", "classic</w>", "classical</w>", "classific", "classification</w>", "classified</w>", "clay</w>", "cle", "cle</w>", "clean</w>", "clear</w>", "cleared</w>", "clearly</w>", "cleus</w>", "clevel", "cleveland</w>", "clim", "climate</w>", "clint", "clinton</w>", "clo", "clock</w>", "clocks</w>", "clone</w>", "clos", "close</w>", "closed</w>", "closely</w>", "closer</w>", "closest</w>", "closing</w>", "closure</w>", "cloth", "clothes</w>", "clothing</w>", "clou", "cloud</w>", "clu", "club</w>", "clubs</w>", "cm</w>", "co", "co</w>", "coach</w>", "coaches</w>", "coaching</w>", "coal</w>", "coast</w>", "coastal</w>", "cobra</w>", "code</w>", "cogn", "coin</w>", "coins</w>", "col", "cold</w>", "coldrum</w>", "cole", "cole</w>", "coleman</w>", "coll", "collabor", "collaboration</w>", "collap", "collapse</w>", "collapsed</w>", "colle", "colleagues</w>", "collected</w>", "collection</w>", "college</w>", "coln</w>", "colo", "colon", "colonel</w>", "colonial</w>", "colonies</w>", "colony</w>", "color", "color</w>", "colorado</w>", "colour</w>", "colours</w>", "colum", "columbia</w>", "columbus</w>", "column</w>", "columns</w>", "com", "com</w>", "comb", "combat</w>", "combination</w>", "combined</w>", "come</w>", "comed", "comedy</w>", "comes</w>", "comic</w>", "comics</w>", "coming</w>", "comm", "comman", "command", "command</w>", "commanded</w>", "commander</w>", "commanders</w>", "commanding</w>", "commandment</w>", "commandments</w>", "commando", "commandos</w>", "commenced</w>", "commended</w>", "comment", "commented</w>", "commenting</w>", "comments</w>", "commer", "commerce</w>", "commercial</w>", "commis", "commissi", "commission", "commission</w>", "commissioned</w>", "commissioner</w>", "commit", "committe", "committed</w>", "committee</w>", "common", "common</w>", "commonly</w>", "commons</w>", "commonwe", "commonwealth</w>", "commun", "communication</w>", "communications</w>", "communist</w>", "communities</w>", "community</w>", "comp", "compan", "companies</w>", "company</w>", "compar", "compared</w>", "comparison</w>", "compe", "compete</w>", "competi", "competition</w>", "competitions</w>", "competitive</w>", "compil", "compilation</w>", "comple", "complet", "complete</w>", "completed</w>", "completely</w>", "completing</w>", "completion</w>", "complex</w>", "complim", "complimented</w>", "compo", "compon", "component</w>", "components</w>", "compos", "composed</w>", "composer</w>", "composition</w>", "compositions</w>", "compound</w>", "compounds</w>", "compri", "comprised</w>", "compu", "computer</w>", "con", "conc", "concentrated</w>", "concentration</w>", "concept</w>", "concer", "concern</w>", "concerned</w>", "concerning</w>", "concerns</w>", "concert</w>", "concerts</w>", "concession</w>", "conclu", "concluded</w>", "conclusion</w>", "concre", "concrete</w>", "condem", "condemned</w>", "condi", "condition</w>", "conditions</w>", "condom", "condom</w>", "condoms</w>", "conduc", "conduct</w>", "conducted</w>", "conf", "confer", "conference</w>", "confession</w>", "confir", "confirmed</w>", "confl", "conflic", "conflict</w>", "conflicts</w>", "confu", "confusion</w>", "cong</w>", "congo</w>", "congress</w>", "conjun", "conjunction</w>", "conn", "connaissance</w>", "connec", "connected</w>", "connecting</w>", "connection</w>", "connections</w>", "conom", "conqu", "conquest</w>", "consec", "consecu", "consecutive</w>", "consent</w>", "consequently</w>", "conserv", "conservation</w>", "conservative</w>", "consi", "consider", "consider</w>", "considerable</w>", "considered</w>", "considering</w>", "considers</w>", "consist", "consisted</w>", "consistent</w>", "consistently</w>", "consisting</w>", "consists</w>", "constan", "constant", "constant</w>", "constantine</w>", "constitu", "constitution</w>", "construc", "constructed</w>", "construction</w>", "cont", "conta", "contact</w>", "contain</w>", "contained</w>", "containing</w>", "contains</w>", "contem", "contemporary</w>", "content</w>", "contest</w>", "context</w>", "contin", "continental</w>", "continu", "continue</w>", "continued</w>", "continues</w>", "continuing</w>", "continuous</w>", "contra", "contract</w>", "contrast</w>", "contributed</w>", "contribution</w>", "contro", "control", "control</w>", "controlled</w>", "controller</w>", "controver", "controvers", "controversi", "controversial</w>", "controversy</w>", "conv", "convection</w>", "conven", "convention</w>", "conver", "convers", "conversation</w>", "conversion</w>", "converted</w>", "convin", "convinced</w>", "convo", "convoy</w>", "cool</w>", "cooperation</w>", "cop", "copies</w>", "copy</w>", "cor", "corated</w>", "corbet</w>", "core</w>", "corn</w>", "corner</w>", "corpor", "corporated</w>", "corporation</w>", "corps</w>", "corpus</w>", "correc", "correct</w>", "cort</w>", "cost</w>", "costs</w>", "cot", "cott", "cotton</w>", "cou", "cougar", "cougar</w>", "cougars</w>", "coul", "could", "could</w>", "couldn</w>", "coun", "council</w>", "count</w>", "counter", "counter</w>", "countered</w>", "counties</w>", "countries</w>", "country</w>", "county</w>", "coup</w>", "couple</w>", "cour", "couraged</w>", "course</w>", "courses</w>", "court</w>", "courts</w>", "cous", "cousin</w>", "cover", "cover</w>", "coverage</w>", "covered</w>", "covering</w>", "covers</w>", "covery</w>", "cps</w>", "cra", "craft</w>", "crake</w>", "crash</w>", "cratic</w>", "craz", "crazy</w>", "cre", "create</w>", "created</w>", "creating</w>", "creation</w>", "creative</w>", "creator</w>", "credi", "credit</w>", "credited</w>", "credits</w>", "creek</w>", "cres", "cressw", "cresswell</w>", "creut", "creutz</w>", "crew</w>", "crews</w>", "cri", "cric", "cricket</w>", "crickets</w>", "crime</w>", "crimin", "criminal</w>", "crisis</w>", "critic", "critic</w>", "critical</w>", "criticised</w>", "criticism</w>", "criticized</w>", "critics</w>", "cro", "croati", "croatia</w>", "croatian</w>", "crops</w>", "cros", "cross</w>", "crossed</w>", "crosses</w>", "crossing</w>", "crow", "crowd</w>", "crown</w>", "cru", "cruis", "cruise</w>", "cruiser</w>", "cruisers</w>", "crus", "crusaders</w>", "crush</w>", "cry", "cryst", "crystal</w>", "ct</w>", "cted</w>", "ction</w>", "ctions</w>", "ctive</w>", "cu", "cubs</w>", "cue</w>", "cued</w>", "cul", "cull", "cullen</w>", "cult</w>", "cultural</w>", "culture</w>", "cum", "cup</w>", "cur", "cur</w>", "curr", "current</w>", "currently</w>", "curved</w>", "cus", "cut</w>", "cutting</w>", "cy", "cy</w>", "cycle</w>", "cyclone</w>", "cyru", "cyrus</w>", "d", "d</w>", "da", "da</w>", "dad</w>", "daen", "daenathus</w>", "dag</w>", "dah", "daho</w>", "daily</w>", "dako", "dakota</w>", "dam", "dam</w>", "damage</w>", "damaged</w>", "dams</w>", "dan", "dan</w>", "dance</w>", "dancing</w>", "danger</w>", "dangerous</w>", "dani", "daniel</w>", "danny</w>", "dar</w>", "dark</w>", "dary</w>", "dat", "data</w>", "date</w>", "dated</w>", "dates</w>", "dating</w>", "dation</w>", "dators</w>", "daugh", "daughter</w>", "daughters</w>", "dave</w>", "davi", "david</w>", "davis</w>", "dawn</w>", "day", "day</w>", "daydream</w>", "days</w>", "dc</w>", "dd", "dd</w>", "dde", "dden", "dden</w>", "ddenly</w>", "ddess</w>", "dding</w>", "ddle</w>", "de", "de</w>", "dead</w>", "deal</w>", "dean</w>", "death</w>", "deaths</w>", "debate</w>", "debut</w>", "debuted</w>", "dec", "decade</w>", "decades</w>", "decay</w>", "december</w>", "decessor</w>", "deci", "decided</w>", "decides</w>", "decision</w>", "decisions</w>", "deck</w>", "decl", "declared</w>", "decline</w>", "declined</w>", "decommissioned</w>", "decorated</w>", "ded</w>", "dedic", "dedicated</w>", "dedication</w>", "deed</w>", "deemed</w>", "deep</w>", "deer</w>", "def", "defe", "defeat</w>", "defeated</w>", "defeating</w>", "defen", "defence</w>", "defences</w>", "defend</w>", "defended</w>", "defender</w>", "defenders</w>", "defending</w>", "defense</w>", "defensive</w>", "defin", "defined</w>", "definition</w>", "degre", "degree</w>", "degrees</w>", "degro", "degrom</w>", "deities</w>", "deity</w>", "del", "del</w>", "delaware</w>", "delay</w>", "delayed</w>", "deli", "deliver", "delivered</w>", "delivery</w>", "dels</w>", "dely</w>", "dem", "deman", "demand</w>", "demands</w>", "demo", "democratic</w>", "demol", "demolished</w>", "demon", "demon</w>", "demonstrated</w>", "den", "den</w>", "dence</w>", "denied</w>", "dennis</w>", "dens</w>", "dense</w>", "dent</w>", "denti", "dential</w>", "dents</w>", "dep", "depar", "depart", "departed</w>", "department</w>", "departure</w>", "depen", "dependence</w>", "dependent</w>", "depending</w>", "depic", "depicted</w>", "depicting</w>", "depiction</w>", "depicts</w>", "deplo", "deployed</w>", "depres", "depression</w>", "depth</w>", "depu", "deputy</w>", "der", "der</w>", "derby</w>", "dered</w>", "derff", "derffl", "derffling", "derfflinger</w>", "deri", "derick</w>", "dering</w>", "derived</w>", "ders</w>", "dershow", "dershowit", "dershowitz</w>", "des</w>", "descri", "describe</w>", "described</w>", "describes</w>", "describing</w>", "descrip", "description</w>", "deser", "desert</w>", "desi", "desian</w>", "design", "design</w>", "designated</w>", "designation</w>", "designed</w>", "designer</w>", "designs</w>", "desire</w>", "desp", "despite</w>", "despread</w>", "dest", "dest</w>", "destin", "destination</w>", "destiny</w>", "destro", "destroy", "destroy</w>", "destroyed</w>", "destroyer</w>", "destroyers</w>", "destruc", "destruction</w>", "det", "deta", "detail</w>", "detailed</w>", "details</w>", "detected</w>", "deter", "determin", "determine</w>", "determined</w>", "detro", "detroit</w>", "dev", "devel", "develop", "develop</w>", "developed</w>", "developing</w>", "development</w>", "devin</w>", "dfather</w>", "dge</w>", "dh", "dh</w>", "dham</w>", "dhei", "dheim</w>", "dhouse</w>", "di", "di</w>", "dialogue</w>", "diam", "diame", "diameter</w>", "diamond</w>", "dian</w>", "dic", "dicted</w>", "did", "did</w>", "didn</w>", "die</w>", "died</w>", "dier</w>", "diers</w>", "dies</w>", "diet</w>", "diff", "differ", "difference</w>", "differences</w>", "different</w>", "diffic", "difficul", "difficult</w>", "difficulties</w>", "difficulty</w>", "dified</w>", "dig", "digital</w>", "ding</w>", "dings</w>", "direc", "direct</w>", "directed</w>", "directing</w>", "direction</w>", "directly</w>", "director</w>", "directors</w>", "dis", "disappeared</w>", "disaster</w>", "disc</w>", "discover</w>", "discovered</w>", "discovery</w>", "discus", "discuss</w>", "discussed</w>", "discussion</w>", "dise", "disease</w>", "dish</w>", "dismissed</w>", "displa", "displaced</w>", "display</w>", "displayed</w>", "displays</w>", "dispu", "dispute</w>", "dissi", "dissip", "dissipated</w>", "dist", "distance</w>", "distances</w>", "distin", "distinct</w>", "distinctive</w>", "disting", "distingu", "distinguished</w>", "distributed</w>", "distribution</w>", "distric", "district</w>", "districts</w>", "disturb", "disturbance</w>", "dition</w>", "ditional</w>", "dium</w>", "div", "divi", "divided</w>", "divine</w>", "divines</w>", "division</w>", "divisions</w>", "divor", "divorce</w>", "dj", "djed", "djedk", "djedkare</w>", "djo", "djokovic</w>", "dley</w>", "dlife</w>", "dly</w>", "dna</w>", "dner</w>", "dney</w>", "do", "do</w>", "doc", "dock</w>", "doctor</w>", "docum", "document</w>", "documentary</w>", "documented</w>", "documents</w>", "does", "does</w>", "doesn</w>", "dog</w>", "doing</w>", "dol", "dolence</w>", "doll", "dollar</w>", "dollars</w>", "dom", "dom</w>", "domes", "domestic</w>", "domin", "dominant</w>", "dominantly</w>", "dominated</w>", "dominican</w>", "don", "don</w>", "donald</w>", "donated</w>", "done</w>", "door</w>", "dot</w>", "dota</w>", "dou", "double</w>", "doubt</w>", "doug", "douglas</w>", "dover</w>", "dow", "dow</w>", "down", "down</w>", "downlo", "download</w>", "downstream</w>", "downtown</w>", "dows</w>", "doy", "doyle</w>", "dr", "dr</w>", "dra", "draft</w>", "drain", "drainage</w>", "dram", "drama</w>", "dramatic</w>", "draw</w>", "drawing</w>", "drawn</w>", "draws</w>", "dre", "dream</w>", "dred</w>", "dreds</w>", "dres", "dress</w>", "dressed</w>", "drew</w>", "dri", "drinking</w>", "drive</w>", "driven</w>", "driver</w>", "drivers</w>", "driving</w>", "dro", "drop</w>", "dropped</w>", "drove</w>", "dru", "drug</w>", "drum</w>", "drums</w>", "dry</w>", "ds</w>", "dson</w>", "dtrack</w>", "du", "du</w>", "dubbed</w>", "dublin</w>", "duc", "duce</w>", "duces</w>", "dudley</w>", "due</w>", "duet</w>", "duke</w>", "dumon", "dumont</w>", "duo</w>", "dur", "duration</w>", "during</w>", "dut", "dutch</w>", "duties</w>", "duty</w>", "dv", "dvd</w>", "dwide</w>", "dy", "dy</w>", "dyl", "dylan</w>", "dyn", "dynam", "dynamic</w>", "dynasty</w>", "e", "e</w>", "ea", "each</w>", "ead</w>", "eaf", "eafter</w>", "eagle</w>", "eak", "eak</w>", "eaker</w>", "eaking</w>", "ean</w>", "ear", "ear</w>", "earing</w>", "earl</w>", "earli", "earlier</w>", "earliest</w>", "early</w>", "earn</w>", "earned</w>", "earnest</w>", "earning</w>", "ears</w>", "earth", "earth</w>", "earthqu", "earthquake</w>", "eas</w>", "easi", "easily</w>", "east", "east</w>", "eastern</w>", "easy</w>", "eat</w>", "eaton</w>", "eau</w>", "ec", "ech</w>", "eci", "ecially</w>", "ecki</w>", "econom", "economic</w>", "economy</w>", "ecra", "ecraft</w>", "ect</w>", "ected</w>", "ection</w>", "ective</w>", "ectively</w>", "ectives</w>", "ects</w>", "ed", "ed</w>", "eda</w>", "eded</w>", "edge</w>", "edges</w>", "edi", "eding</w>", "edited</w>", "edition</w>", "editor</w>", "edo</w>", "edoc</w>", "edom</w>", "eds</w>", "educ", "education</w>", "educational</w>", "edul", "edward</w>", "eeded</w>", "eer</w>", "ees</w>", "ef</w>", "efa</w>", "eff", "eff</w>", "effect</w>", "effective</w>", "effectively</w>", "effects</w>", "effi", "effield</w>", "effor", "effort</w>", "efforts</w>", "efore</w>", "eful</w>", "eg", "ege</w>", "egg", "eggs</w>", "egyp", "egypt</w>", "egypti", "egyptian</w>", "egyptians</w>", "ehold</w>", "ei", "eigh", "eight</w>", "eighteen</w>", "eighth</w>", "eign</w>", "eiro</w>", "either</w>", "ek</w>", "el", "el</w>", "elaborate</w>", "eld</w>", "elder</w>", "elds</w>", "elec", "elect", "elected</w>", "election</w>", "elections</w>", "electr", "electric</w>", "electrical</w>", "electron", "electronic</w>", "element</w>", "elements</w>", "eler</w>", "eless</w>", "elev", "elevation</w>", "eleven", "eleven</w>", "eleventh</w>", "elgin</w>", "elgu", "elgud</w>", "eli</w>", "elic</w>", "elim", "elimin", "eliminated</w>", "eliz", "elizabeth</w>", "ell", "ell</w>", "ellblazer</w>", "elled</w>", "elli", "ellig", "elligence</w>", "elling</w>", "ellington</w>", "ellow</w>", "ells</w>", "elody</w>", "els</w>", "else", "else</w>", "elsen</w>", "elsewhere</w>", "elsh</w>", "elt</w>", "elve</w>", "ely</w>", "em", "em</w>", "embarked</w>", "ember</w>", "emble</w>", "eme</w>", "emed</w>", "ement</w>", "ements</w>", "emer", "emerged</w>", "emergen", "emergency</w>", "emia</w>", "emies</w>", "emmy</w>", "emo", "emotional</w>", "emp", "emper", "emperor</w>", "emph", "emphasis</w>", "empire</w>", "emple</w>", "emplo", "employ", "employed</w>", "employees</w>", "ems</w>", "emy</w>", "en", "en</w>", "ence</w>", "enced</w>", "ences</w>", "encountered</w>", "encouraged</w>", "end</w>", "ended</w>", "ending</w>", "endly</w>", "ends</w>", "ened</w>", "enemies</w>", "enemy</w>", "ener", "energ", "energy</w>", "eng", "engage</w>", "engaged</w>", "engagement</w>", "engers</w>", "engine", "engine</w>", "engineer</w>", "engineering</w>", "engineers</w>", "engines</w>", "engl", "england</w>", "english</w>", "ength", "ength</w>", "engthened</w>", "ening</w>", "enjo", "enjoyed</w>", "enne", "ennon</w>", "enon</w>", "enough</w>", "enry</w>", "ens", "ens</w>", "ensem", "ensemble</w>", "ensland</w>", "ensure</w>", "ent", "ent</w>", "ental</w>", "entary</w>", "entation</w>", "ented</w>", "enter", "enter</w>", "entered</w>", "entering</w>", "enterprise</w>", "enters</w>", "entertain", "entertainment</w>", "enti", "ential</w>", "entieth</w>", "ention</w>", "entioned</w>", "entire", "entire</w>", "entirely</w>", "entit", "entitled</w>", "ently</w>", "ento", "entology</w>", "entran", "entrance</w>", "entry</w>", "ents</w>", "enty</w>", "envi", "environ", "environment</w>", "environmental</w>", "eo", "eograph", "eography</w>", "eous", "eously</w>", "ep", "ep</w>", "eping</w>", "epis", "episo", "episode</w>", "episodes</w>", "eplay</w>", "ept</w>", "eption</w>", "equ", "equal</w>", "equi", "equip", "equipment</w>", "equipped</w>", "equival", "equivalent</w>", "er", "er</w>", "era</w>", "erbeer</w>", "ere</w>", "ereas</w>", "erected</w>", "ered</w>", "erely</w>", "erful</w>", "eric</w>", "ering</w>", "erings</w>", "erland</w>", "erly</w>", "ern</w>", "ernest</w>", "ero", "ero</w>", "erogative</w>", "erous</w>", "ers</w>", "erset</w>", "ership</w>", "ery</w>", "es", "es</w>", "escape</w>", "escaped</w>", "escort</w>", "ese</w>", "esh</w>", "esi", "esi</w>", "esin", "esinj", "esinje</w>", "esp", "especially</w>", "ess", "ess</w>", "essa</w>", "essage</w>", "essary</w>", "essential</w>", "essi", "ession</w>", "essional</w>", "essions</w>", "essive</w>", "essor</w>", "est", "est</w>", "establ", "establish</w>", "established</w>", "establishing</w>", "establishment</w>", "estate</w>", "ested</w>", "ester</w>", "esti", "estig", "estigation</w>", "estim", "estimat", "estimated</w>", "estimates</w>", "esting</w>", "estioned</w>", "estival</w>", "estment</w>", "ests</w>", "esus</w>", "et", "et</w>", "etation</w>", "eters</w>", "eth", "eth</w>", "ethn", "ethnic</w>", "etic</w>", "eting</w>", "etings</w>", "etres</w>", "etry</w>", "ets</w>", "etting</w>", "eu", "eum</w>", "euro", "europ", "europa</w>", "europe", "europe</w>", "european</w>", "euten", "eutenant</w>", "ev", "eva</w>", "eval</w>", "evans</w>", "eve</w>", "even</w>", "evening</w>", "evens</w>", "event", "event</w>", "events</w>", "eventual</w>", "eventually</w>", "ever", "ever</w>", "evergl", "everglades</w>", "everton</w>", "every", "every</w>", "everyone</w>", "everything</w>", "evi", "evidence</w>", "evident</w>", "evil</w>", "evin</w>", "evita</w>", "evol", "evolved</w>", "ew", "ew</w>", "eway</w>", "ewed</w>", "ewish</w>", "ews</w>", "ex", "ex</w>", "exact</w>", "exactly</w>", "exam", "examination</w>", "example</w>", "examples</w>", "exc", "excav", "excavation</w>", "excavations</w>", "except</w>", "exception</w>", "exchange</w>", "exclu", "exclusi", "exclusiv", "exclusive</w>", "exclusively</w>", "exec", "execu", "executed</w>", "execution</w>", "executive</w>", "exh", "exhausted</w>", "exist", "exist</w>", "existed</w>", "existence</w>", "existing</w>", "exists</w>", "exit</w>", "exp", "expanded</w>", "expansion</w>", "expe", "expected</w>", "expedition</w>", "expen", "expensive</w>", "exper", "experi", "experience</w>", "experienced</w>", "experiences</w>", "experim", "experimental</w>", "expert</w>", "experts</w>", "expl", "expla", "explain</w>", "explained</w>", "explains</w>", "explor", "exploration</w>", "explore</w>", "expo", "exposed</w>", "exposure</w>", "expres", "express", "express</w>", "expressed</w>", "expression</w>", "expressway</w>", "ext", "ext</w>", "exten", "extended</w>", "extension</w>", "extensive</w>", "extent</w>", "extin", "extinct</w>", "extr", "extra", "extra</w>", "extratropical</w>", "extre", "extrem", "extreme</w>", "extremely</w>", "ey", "ey</w>", "eye</w>", "eyes</w>", "f", "f</w>", "fa", "fa</w>", "fac", "face</w>", "faced</w>", "faces</w>", "facil", "facilities</w>", "facility</w>", "facing</w>", "fact</w>", "factor", "factor</w>", "factors</w>", "factory</w>", "fail", "failed</w>", "failing</w>", "failure</w>", "fair</w>", "faith</w>", "fall</w>", "fallen</w>", "falling</w>", "falls</w>", "false</w>", "fam", "fame</w>", "famil", "families</w>", "family</w>", "famous</w>", "fan", "fan</w>", "fani</w>", "fans</w>", "fant", "fantasy</w>", "fantry</w>", "far</w>", "farm</w>", "farmers</w>", "fashion</w>", "fast", "fast</w>", "faster</w>", "fastest</w>", "fate</w>", "father</w>", "faul", "faulk", "faulkner</w>", "fav", "favor", "favor</w>", "favorable</w>", "favorite</w>", "fe", "fe</w>", "fear</w>", "feathers</w>", "featur", "feature</w>", "featured</w>", "features</w>", "featuring</w>", "february</w>", "fect</w>", "fection</w>", "feder", "federal</w>", "federation</w>", "federer</w>", "fee</w>", "feed</w>", "feeding</w>", "feel", "feel</w>", "feeling</w>", "feelings</w>", "feels</w>", "feet</w>", "fei</w>", "fell</w>", "fellow</w>", "felt</w>", "fem", "female</w>", "females</w>", "fer", "fer</w>", "fern", "fernandez</w>", "ferred</w>", "festival</w>", "fetime</w>", "fety</w>", "few", "few</w>", "fewer</w>", "fey</w>", "ff", "ff</w>", "ffic</w>", "ffles</w>", "fi", "fic", "fic</w>", "fiction</w>", "fictional</w>", "fied</w>", "field</w>", "fields</w>", "fif", "fifa</w>", "fifteen</w>", "fifth</w>", "fifty</w>", "fig", "figh", "fight</w>", "fighting</w>", "figu", "figure</w>", "figures</w>", "fil", "file</w>", "fill</w>", "filled</w>", "film", "film</w>", "filmed</w>", "filming</w>", "films</w>", "fin", "final</w>", "finale</w>", "finally</w>", "finals</w>", "financial</w>", "find</w>", "finding</w>", "finds</w>", "fine</w>", "finish</w>", "finished</w>", "finishing</w>", "finkel", "finkelste", "finkelstein</w>", "fir", "fire</w>", "fired</w>", "fires</w>", "firing</w>", "firm</w>", "first</w>", "fish</w>", "fishing</w>", "fit</w>", "fits</w>", "fitted</w>", "five</w>", "fix", "fixed</w>", "fl", "fla", "flag</w>", "flagship</w>", "flan", "flank</w>", "flash</w>", "flat</w>", "fle", "fle</w>", "flected</w>", "fled</w>", "fleet</w>", "fles</w>", "flesh</w>", "flew</w>", "flies</w>", "flight</w>", "flights</w>", "flo", "floo", "flood</w>", "flooding</w>", "floor</w>", "flor", "flori", "florida</w>", "flow", "flow</w>", "flower</w>", "flowers</w>", "flows</w>", "flu", "fly</w>", "flying</w>", "fna</w>", "fo", "foc", "focus</w>", "focused</w>", "focusing</w>", "fol", "folk</w>", "follow", "follow</w>", "followed</w>", "followers</w>", "following</w>", "follows</w>", "foo", "food</w>", "foot", "foot</w>", "footage</w>", "football</w>", "for", "for</w>", "force</w>", "forced</w>", "forcements</w>", "forces</w>", "forcing</w>", "ford</w>", "fore", "fore</w>", "foreign</w>", "forest</w>", "forests</w>", "forever</w>", "form", "form</w>", "forma", "formal</w>", "formally</w>", "forman", "format</w>", "formation</w>", "formed</w>", "former</w>", "formerly</w>", "forming</w>", "forms</w>", "fort</w>", "fortun", "fortune</w>", "forty</w>", "forward</w>", "fought</w>", "foun", "found</w>", "foundation</w>", "founded</w>", "founder</w>", "four", "four</w>", "fourteen</w>", "fourth</w>", "fow", "fowler</w>", "fox", "fox</w>", "foxes</w>", "fra", "frame</w>", "fran", "france</w>", "franchise</w>", "francis</w>", "francisco</w>", "frank", "frank</w>", "franklin</w>", "fraser</w>", "frastructure</w>", "fre", "freakum</w>", "frederick</w>", "free</w>", "freedom</w>", "freeway</w>", "fren", "french</w>", "frequ", "frequent</w>", "frequently</w>", "fresh</w>", "fri", "friend</w>", "friendly</w>", "friends</w>", "fro", "from</w>", "fron", "front</w>", "fru", "fruit</w>", "ft</w>", "ften</w>", "fu", "fuel</w>", "ful", "ful</w>", "full</w>", "fully</w>", "fun", "fun</w>", "function</w>", "functions</w>", "fund</w>", "funding</w>", "funds</w>", "fungu", "fungus</w>", "funny</w>", "fur", "fur</w>", "furt", "furtado</w>", "further", "further</w>", "furthermore</w>", "future</w>", "fy</w>", "fying</w>", "g", "g</w>", "ga", "ga</w>", "gabbar</w>", "gacko</w>", "gadishu</w>", "gaelic</w>", "gain</w>", "gained</w>", "gaining</w>", "gallery</w>", "galveston</w>", "gam", "game</w>", "gameplay</w>", "games</w>", "gaming</w>", "gan</w>", "gap</w>", "gar", "gar</w>", "garden</w>", "gardens</w>", "gardner</w>", "garet</w>", "garian</w>", "garn", "garnered</w>", "garrison</w>", "gary</w>", "gas</w>", "gate</w>", "gates</w>", "gathered</w>", "gative</w>", "gave</w>", "gby</w>", "ge", "ge</w>", "ged</w>", "gen", "gen</w>", "gend</w>", "gender</w>", "gene</w>", "gener", "general</w>", "generally</w>", "generals</w>", "generated</w>", "generation</w>", "genetic</w>", "genre</w>", "genus</w>", "geoff</w>", "geography</w>", "geor", "george</w>", "georgi", "georgia</w>", "ger", "ger</w>", "gerard</w>", "german", "german</w>", "germans</w>", "germany</w>", "gers</w>", "gery</w>", "ges</w>", "gest</w>", "get</w>", "gether</w>", "gets</w>", "getting</w>", "gg", "gh", "gh</w>", "ghes</w>", "gho", "ghost</w>", "ght", "ght</w>", "ghting", "ghtingale</w>", "ghts</w>", "gi", "gian</w>", "giant</w>", "giants</w>", "gie</w>", "gielgud</w>", "gift</w>", "gil", "gilbert</w>", "gill</w>", "gin", "gin</w>", "ginia</w>", "gir", "girl</w>", "girls</w>", "give</w>", "given</w>", "gives</w>", "giving</w>", "gl", "gladstone</w>", "glass</w>", "glee</w>", "glo", "global</w>", "globe</w>", "gment</w>", "gn", "gn</w>", "go", "go</w>", "goal</w>", "goals</w>", "goat</w>", "god</w>", "goddess</w>", "gods</w>", "goes</w>", "goff", "goffman</w>", "going</w>", "gol", "gold</w>", "golden</w>", "gone</w>", "good</w>", "goods</w>", "gor", "gordon</w>", "gory</w>", "gosp", "gospel</w>", "got</w>", "goti", "gotiations</w>", "gov", "gover", "govern", "government</w>", "governments</w>", "governor</w>", "govina</w>", "gra", "grace</w>", "grade</w>", "graded</w>", "gradu", "gradually</w>", "graduate</w>", "graf</w>", "grain</w>", "gram", "gramm", "grammar</w>", "gramme</w>", "gramming</w>", "grammy</w>", "gran", "grand</w>", "grandfather</w>", "grant</w>", "granted</w>", "grants</w>", "graph", "graph</w>", "graphics</w>", "grass</w>", "grasses</w>", "gration</w>", "grav", "grave</w>", "gravity</w>", "gray</w>", "gre", "great", "great</w>", "greater</w>", "greatest</w>", "greatly</w>", "greek</w>", "green</w>", "greg</w>", "gregory</w>", "gress</w>", "grew</w>", "grey</w>", "gro", "gromet", "grometric", "grometricus</w>", "grou", "ground</w>", "grounds</w>", "group</w>", "groups</w>", "grow", "grow</w>", "growing</w>", "grown</w>", "grows</w>", "growth</w>", "gu", "gu</w>", "guard</w>", "guardian</w>", "gue</w>", "guese</w>", "guest</w>", "gui", "guidance</w>", "guide</w>", "guides</w>", "guil", "guilty</w>", "guit", "guitar</w>", "guitarist</w>", "gul", "gulf</w>", "gully</w>", "gun", "gun</w>", "guns</w>", "guy</w>", "gw", "gwen</w>", "h", "h</w>", "ha", "ha</w>", "habit", "habitants</w>", "habitat</w>", "habitats</w>", "had</w>", "hael</w>", "hai", "haifa</w>", "hair</w>", "haiti", "haiti</w>", "haitian</w>", "hal", "half</w>", "hall</w>", "halo</w>", "ham", "hamels</w>", "hamil", "hamilton</w>", "hamlet</w>", "hamp", "hampshire</w>", "han</w>", "hand</w>", "handed</w>", "handled</w>", "hands</w>", "hann", "hanna</w>", "hannah</w>", "happ", "happen</w>", "happened</w>", "happy</w>", "haps</w>", "har", "harbor</w>", "harbour</w>", "hard</w>", "hardson</w>", "harold</w>", "harrison</w>", "harry</w>", "hart</w>", "has</w>", "hat</w>", "have</w>", "haven</w>", "having</w>", "hawa", "hawai", "hawai</w>", "hawaii</w>", "hawaiian</w>", "he", "he</w>", "hea", "head", "head</w>", "headed</w>", "heading</w>", "headquar", "headquarters</w>", "heads</w>", "health</w>", "hear", "hear</w>", "heard</w>", "hearing</w>", "heart</w>", "hearts</w>", "heat</w>", "heav", "heaven</w>", "heavily</w>", "heavy</w>", "height</w>", "hel", "held</w>", "hell</w>", "hellblazer</w>", "helm</w>", "helmet</w>", "helms</w>", "help</w>", "helped</w>", "helping</w>", "helps</w>", "hence</w>", "henry</w>", "her", "her</w>", "herald</w>", "herd</w>", "here</w>", "herg</w>", "herit", "heritage</w>", "hero", "hero</w>", "heroes</w>", "herself</w>", "herze", "herzegovina</w>", "hesh</w>", "hg</w>", "hi", "hibari</w>", "hic", "hidden</w>", "higan</w>", "high", "high</w>", "higher</w>", "highest</w>", "highligh", "highlight</w>", "highlighted</w>", "highly</w>", "highway</w>", "highways</w>", "hill</w>", "hills</w>", "him", "him</w>", "himself</w>", "hindu", "hindu</w>", "hington</w>", "hio</w>", "hip</w>", "hired</w>", "his</w>", "histor", "historian</w>", "historians</w>", "historic</w>", "historical</w>", "historically</w>", "history</w>", "hit", "hit</w>", "hits</w>", "hitting</w>", "hl</w>", "hmon", "hmond</w>", "hms</w>", "hn", "hn</w>", "hnc</w>", "ho", "hobbs</w>", "hockey</w>", "hok", "hokies</w>", "hol", "hold</w>", "holding</w>", "holds</w>", "holi", "holiday</w>", "holly", "hollywood</w>", "holo", "holocaust</w>", "holy</w>", "hom", "home</w>", "homer</w>", "homes</w>", "hon", "hong</w>", "honor", "honor</w>", "honorary</w>", "honour", "honour</w>", "honours</w>", "hoon</w>", "hoover</w>", "hop</w>", "hope</w>", "hoped</w>", "hoping</w>", "hor", "horn", "horn</w>", "hornun", "hornung</w>", "horr", "horror</w>", "horse</w>", "horses</w>", "hosp", "hospit", "hospital</w>", "hospitals</w>", "host</w>", "hosted</w>", "hosti", "hostile</w>", "hot", "hot</w>", "hotel</w>", "hou", "hou</w>", "hour</w>", "hours</w>", "hous", "house</w>", "housed</w>", "household</w>", "houses</w>", "housing</w>", "houston</w>", "how", "how</w>", "howard</w>", "howe</w>", "however</w>", "hu", "hudson</w>", "huge</w>", "hughes</w>", "hull</w>", "hum", "human</w>", "humans</w>", "hump", "humpty</w>", "hun", "hundred</w>", "hundreds</w>", "hungarian</w>", "hunt</w>", "hunter</w>", "hunting</w>", "hur", "hurric", "hurrican", "hurricane</w>", "hurricanes</w>", "hus", "husband</w>", "hy", "hy</w>", "hygrometricus</w>", "hys</w>", "i", "i</w>",
[...]
